[PAD]
[UNK]
[CLS]
[SEP]
[MASK]
!
,
.
?
a
b
c
d
e
f
g
h
i
j
k
l
m
n
o
p
q
r
s
t
u
v
w
x
y
z
á
é
í
ó
ö
ú
ü
ő
ű
##o
##n
##p
##ü
##l
##e
##t
##r
##v
##z
##é
##s
##u
##i
##ó
##a
##b
##d
##ű
##ő
##k
##x
##g
##á
##j
##m
##c
##ö
##í
##ú
##h
##f
##y
##w
##q
##el
##et
##en
##sz
##gy
##er
##at
##al
##ek
##an
sz
##ás
az
##em
##eg
##on
##ak
##ál
##ár
##or
##ol
##in
##es
##ny
##és
##ok
és
##ez
##ég
##ar
##ik
##os
el
##tt
##ít
meg
##án
##ér
##ül
egy
##oz
##át
##bb
##ap
kö
##ogy
is
##agy
##él
##om
##ett
##ed
##ék
##ét
##is
hogy
##nk
##szt
##ág
##it
nem
##am
##ad
##cs
##ség
##ban
##én
##ben
cs
##og
##ni
##ul
##il
##ott
##int
fel
##as
##ól
##ész
ki
##ag
##ény
##ra
##ja
##re
##ép
##ely
le
al
ez
##aj
##het
am
szer
##ány
##iz
##az
##ák
köz
##ot
min
##ig
##end
##ám
##ell
ak
##ai
##unk
##od
##ent
tö
##nak
##áz
##us
##hat
gy
ér
##ől
##ci
##nek
##ut
##szer
ha
##art
##uk
##olt
##ság
ál
mind
##ud
be
##ált
##ont
ny
de
vagy
##ük
##ön
in
ter
##let
##ab
##ev
##áll
##ért
##kö
ol
nagy
val
ad
##ók
##ej
##ve
##ert
##alm
rend
##egy
##vel
##kez
##atás
##val
##ta
##ítás
##ep
##ív
##öl
már
elő
leg
##dő
##rt
ut
mi
ker
##ond
##ünk
volt
##olg
##len
áll
##éz
más
##um
##vet
tud
van
er
##orm
##kor
év
jel
pr
em
lehet
##ött
##est
szám
##ba
##ód
kell
##áj
##ály
##ában
##ber
es
csak
##ább
##ezet
##eket
##nál
##att
minden
##ése
##ov
hi
hely
##elő
##elm
még
##koz
##ára
mag
##av
##ció
##eszt
##aszt
kap
##ur
##ssz
##oly
##ök
##ír
##okat
tel
##ony
tart
##hoz
an
##tal
##ében
ig
##ület
il
##ző
mint
##ély
##be
biz
##ia
több
kép
fog
szem
##ém
azt
##ható
##asz
##agyar
##ési
##mény
##im
te
##id
nap
##ént
magyar
##ból
##ső
##iszt
össz
##úl
vég
kül
##ir
##elt
mű
alap
##ató
ar
##ebb
##ült
tan
##ők
##ör
for
##ása
sem
##ján
##éd
##eny
rész
kez
új
##esen
##juk
##kal
amely
##ín
en
##obb
##hez
##zet
##ális
##ajd
term
##ére
##szág
kör
ért
##ill
##ch
bel
tal
##ob
##ei
##va
##dés
jó
or
vár
##ult
át
##ort
munk
##op
##ást
##ád
##ával
##öv
##zés
##ának
oly
kis
##ős
##ós
##yen
##fel
##áció
kész
##ter
idő
akkor
##íz
szak
han
##esz
##ének
##ról
sok
valam
##enn
hoz
##ikus
szerint
##lt
hat
alk
##ös
##hető
##atok
##leg
hasz
##ost
olyan
így
vál
##köz
ami
id
tár
##abb
ép
##dal
##elés
fi
##ót
szab
kor
ped
##na
lát
##ani
##ják
eg
##árt
##ink
ah
által
mert
két
eset
##ítés
##nyi
él
##csol
##ási
kér
##tet
bizt
sor
##ilág
##őr
##ított
##vez
##ások
ember
##ház
ne
##ug
követ
vis
után
telj
##almaz
##erc
##év
##isz
##étel
azon
##kol
##te
tört
##any
##őség
##ász
##jt
külön
úgy
érd
##tel
jelent
##ram
pedig
majd
##eb
##ked
ir
első
st
##vény
##ati
foly
fej
##ovább
hal
nagyon
igaz
##ikor
##lan
ellen
tovább
##kel
##óg
##áb
##mer
##ló
##észet
##atos
mell
élet
jog
##elem
##ata
##öld
gyer
##ből
egész
##ről
##emény
##ével
mely
##jel
##ekt
ezt
##etlen
hozz
##ri
##ikai
saj
világ
##ef
ok
##ített
seg
szolg
##vezet
való
gond
##jük
##pont
másod
lesz
szeret
tör
fő
##iv
##eni
rendel
##árm
ön
kapcsol
##kép
##szerű
##nap
##zs
illet
mond
##ormány
használ
aki
ugy
történ
##szak
##pr
##ezés
##hely
##áv
##je
mar
##ím
men
nek
##ontos
vált
##esség
##aság
talál
##ossz
most
##un
ját
##ként
között
##dul
vissz
nev
biztos
##ic
##lő
##azd
kom
##ító
##ers
személy
sp
mód
##alom
ár
##sal
##ország
##incs
##rend
##atal
##lal
teljes
##izs
ugyan
##ha
szín
##ját
érdek
##adás
itt
segít
né
##tam
##eng
##ki
##kül
##ezett
##séges
##áló
int
##ács
##nyv
##ip
##tár
##and
rendszer
##kod
##old
kiv
ked
##ing
ered
##tatás
##ogram
##ió
##ező
##vas
##fi
##omány
bet
lak
cél
##inek
ott
any
##tart
egyik
ma
amikor
##állal
adat
##ember
##atkoz
ír
szint
kar
##fog
tám
illetve
én
##ette
##tak
##ór
##form
##éter
zs
##vár
jelen
bud
##eh
##ilyen
##észt
ügy
##ést
##szám
##tat
##vány
##ög
##ozás
ország
kon
vezet
##eti
felh
aut
dolg
társ
hang
##ván
von
oldal
út
érték
alatt
elm
szük
##akor
##áról
##gyen
mér
##őt
termék
##zel
##elmi
kezd
ház
##tor
##öz
hu
##ess
##lát
nemzet
##perc
##izsg
cím
szolgált
önk
##lat
ilyen
város
amit
csal
##pl
##önt
másodperc
##ekkel
fél
pár
bar
##atlan
##ügy
##ölt
program
##űn
##ex
##ck
nincs
##mek
valamint
##ozó
##ába
akik
##ozott
##ormányz
par
fü
visz
üz
ör
##ket
ist
har
##ütt
##óp
##enek
##ából
##leszt
##éld
##élkül
##jár
##ób
##ítő
##adó
tiszt
arra
##apest
##eli
megfel
haj
sik
péld
fr
##ün
##éb
lét
száz
##fej
száll
##ass
##gg
rendelkez
budapest
felt
saját
kr
##ika
hanem
keres
hisz
ezek
eur
##enne
##enni
##ors
természet
víz
##omb
előtt
##enc
##almas
aján
együtt
besz
##for
műkö
választ
figy
##oszt
vol
##tek
rá
játék
##ánt
hagy
egyes
szól
##utat
##elet
##énz
következ
kív
terület
##izet
foglal
##osz
lehetőség
##of
##ológ
önkormányz
gazd
##ant
##ések
túl
vers
##ozat
szerep
család
gondol
ahol
támog
##asznál
vállal
##erg
esz
jobb
számára
néz
##öm
##üt
kev
mellett
##nél
nélkül
nyom
jav
vesz
megy
igény
könyv
##tem
ed
ismer
szabad
miatt
ind
jól
azonban
##iai
##fél
bal
hét
alkalmaz
##ános
##mű
állam
közös
##úz
reg
##lás
##ásár
pont
##up
szó
határ
tag
inform
ezért
intéz
##assz
siker
##óz
volna
##onság
test
jár
##ium
di
##újt
gyakor
olvas
körül
##osan
##ája
mindig
folyam
megfelelő
pály
##nök
##szi
gyermek
##pen
körny
hát
##lés
##chn
##elv
##kész
##etek
##ker
##szín
tanul
fil
##véd
dí
pénz
eml
##ták
ebb
##árom
bizony
tér
per
akár
##ítása
azért
##ához
anyag
##ékeny
iskol
szép
csap
dok
annak
##iség
##sel
im
ism
##út
szabály
vizsg
fontos
##lak
azok
##usz
##st
kit
##atot
##dig
##ógy
##ását
##alak
nyil
költ
vissza
##ka
egyéb
megt
##gel
magyarország
hozzá
hossz
##ec
##uszt
bár
fér
##sor
hatás
alapján
lett
##sége
nép
form
##úr
##ang
haz
kerül
tr
##oh
felad
semm
vel
##oll
eredmény
##ekint
kat
szerző
irány
##nny
kl
##anyag
törvény
során
európ
megjel
##za
ennek
##élet
rég
##ekben
forint
##úly
gyerek
dönt
kereszt
##tó
felhasznál
##ői
kut
moz
szolgáltatás
könny
has
három
##ően
mill
##ással
##essz
szeretn
##ául
elég
##anak
##éről
lev
marad
##ítani
akar
mik
föld
vid
##ocs
##eked
egyet
megv
##íg
##öt
##okkal
verseny
magas
alak
beszél
##ca
ór
##zi
kics
szervezet
táj
##ánk
##oport
kösz
eng
elt
##lap
##ver
megsz
dar
##vis
##séget
##inak
##foly
lép
##ábor
##ciók
össze
kedv
mivel
##ac
##esebb
például
##szik
különb
hiszen
öt
##da
táv
megh
hiv
##itel
##ete
pol
##éhez
##áp
ment
éves
legyen
##hány
cég
##zett
##ment
##acs
kí
##mány
ném
##osság
##ub
milyen
fogy
##ékoz
##ron
##ségi
##tól
##ációs
bor
##ökk
##vétel
web
##oj
##állítás
gyors
egyszerű
vannak
##só
tap
##ib
##határ
vas
jell
másik
viszont
##ásra
véd
##ull
fejleszt
##asztal
bárm
telep
##mal
kérdés
hall
##jegy
gyógy
elér
perc
néhány
nyelv
##eit
##átt
##hon
közel
ahogy
##ülés
mit
##öző
##leges
##nok
esetén
szív
##enci
további
##le
kil
vél
hó
munka
bek
##ulajd
fény
mod
##ehér
tekint
erős
megold
kir
##mér
##után
elv
##dik
nyug
ezzel
kötel
érz
hír
##ens
##őbb
##ször
raj
kés
tev
##íts
teh
oszt
##új
eszköz
igen
##ékony
iz
tény
ap
##őv
##ismer
szakm
##mel
ezen
inter
##obl
##ennyi
abb
beteg
##érték
vásár
gép
köszön
##ügyi
##ral
##atban
##övet
változ
##nő
##ségek
##últ
szent
##olás
film
##etés
##ítja
egym
ber
##ágy
##ft
##ester
tet
##ört
bem
##jon
##vos
##von
##ánc
haszn
##ne
##almi
egyed
br
##tató
függ
##űr
fal
foglalkoz
##gató
tölt
##emes
techn
szél
támogatás
részt
ide
##oblém
##eknek
darab
##ist
környezet
tevékeny
adott
##őz
emlék
##ezni
növ
vonatkoz
belül
hason
zen
##okban
tulajd
készül
valami
##ákat
##par
##jobb
##ánd
szükséges
##oldal
##ettel
vi
##ús
##talan
on
bír
##ine
ink
lel
##telen
##ói
sport
##űz
##átor
##ür
jut
korább
nagyobb
kéz
ab
legjobb
##nal
##szab
csat
##ését
problém
tájékoz
##atív
nyilván
##álló
helyzet
érint
tervez
##föld
ebben
irod
általános
jöv
##oló
minőség
##ítése
##asági
##iss
##ejt
##íp
##uh
alkot
biztonság
hor
##eken
részlet
##gat
segítség
##íl
fiatal
elem
barát
##álni
lenne
nyújt
kam
doktor
isten
kialak
th
##nev
##sze
inkább
vagyok
##ári
##ogat
##űjt
##álat
##all
európai
enged
amelyek
hon
##alék
aztán
pl
pályáz
teljesen
##apot
jegy
kár
szóló
##ept
központ
bl
fok
rendez
található
hogyan
##üntet
megb
##adt
op
and
bi
erre
annyi
##ítmény
##iskol
fin
egyszer
őket
négy
harm
##ettem
prób
fehér
hónap
ajánl
forr
került
meghatár
##ank
##város
##uár
persze
egyetem
##íteni
neki
##ón
##jai
eljár
megáll
képvis
##ah
óra
köt
kult
tartalmaz
##endég
tapasztal
dolgoz
férfi
hol
##szolg
legal
##űt
tárgy
##mus
újra
kormány
esetben
elekt
mutat
##olni
csoport
szükség
mot
fut
dél
##ottság
többi
##óbb
##nagy
forg
csökk
lap
talán
elh
##mag
évi
##ezt
különböző
képes
##ülő
##ekre
##elked
##ock
str
hosszú
##ii
szav
tudom
fenn
intézmény
akt
##zal
műv
##álás
##árs
vendég
tehát
##jabb
##ébe
kik
##ajt
bőr
##osítás
közül
##ésre
##okon
##árd
energ
süt
ellát
##ow
hivatal
egészség
feltétel
##hetetlen
létre
##zat
##övid
##ind
##évő
part
##közi
szen
cik
szervez
re
német
következő
##ista
tanács
##anci
nemzeti
egyre
##efon
készült
##meg
elfog
##ázs
##ettek
önkormányzat
szo
##jában
megk
##áját
pontos
##elni
érkez
##uház
tem
##őleg
polit
##atosan
se
erő
kft
##akat
rom
##csak
megjelen
##ezz
##eteg
szok
##itás
dr
##féle
##dött
##ulás
arról
helyi
pap
kal
##ációk
ex
okoz
##omag
eddig
közép
találkoz
rossz
kicsit
ham
##íti
nekem
szület
##ong
idej
üzem
rövid
gyárt
##otta
ismert
nő
második
kívül
baj
társad
üzlet
miért
##rel
##ípus
amennyi
szakmai
legalább
éppen
fizet
közben
szerződés
rem
autó
ch
##heti
közvet
##lik
##eink
##ya
kény
benne
kih
neh
vezető
utol
##endő
##ait
adatok
szeg
##óság
##oknak
semmi
számít
épület
##üz
voltak
mindenki
polg
##itk
##álaszt
##lag
mer
elnök
let
tulajdon
hasonló
kellett
##aton
emberek
század
fogyaszt
vele
valak
kifej
##ion
##énk
javas
bele
##nep
később
##adék
##ókat
személyes
tém
otthon
vide
gar
##avar
##rom
##ics
megl
vállalkoz
##nagyobb
gr
ingyen
díj
óta
hív
##gazd
kíván
##gal
című
##ke
##ma
##li
##álja
##iget
##előtt
ugyanis
##utató
##szor
##től
##uális
figyelm
tök
állapot
##akt
nov
##etében
nemzetközi
ver
##ető
lány
szex
játsz
keresztül
fot
##ésére
vonatkozó
pan
##ették
zöld
##eség
azzal
##ezte
utca
csod
por
ing
##elős
##uz
kezelés
szinte
szöv
legnagyobb
magát
##ományos
##line
##ciális
maga
ford
##észeti
jelenleg
vér
att
rep
##ásban
##ászló
mégis
érdekében
uni
százalék
cser
csin
##védelmi
##mun
##hatja
##nnep
##folyam
##jelent
utaz
ünnep
##ilis
amer
##dése
##ítvány
abban
közl
íz
var
különös
##okra
mel
király
módon
mikor
csapat
##öbb
alá
megrend
##eztet
##encs
szob
##attal
fáj
##andó
fer
med
amennyiben
hiány
míg
##ottak
mély
oktatás
arc
megm
vit
##ecs
mos
dec
megyei
pia
##net
menny
történő
ang
##tunk
lég
##nem
##sér
nehéz
##adott
felelős
kevés
##adik
ezer
máj
összes
nyit
zár
##úra
##írt
##ekv
sokkal
orvos
##eget
##olog
mozg
ellenőr
feladat
használat
##dolg
##fizet
konc
költség
pill
##ölcs
válasz
szül
végre
tudja
jellem
esemény
megállap
##egész
##ran
##jét
##áig
fordul
##ította
##jának
név
egyen
osztály
##bel
jövő
##enet
##dí
éj
##kör
miniszt
jelentkez
##izmus
##pal
lévő
szemben
érdemes
##ukat
történet
##rd
lény
##enti
utolsó
rög
óv
##éri
tor
hid
összef
##ítási
súly
##rész
##óri
értelm
##var
megtal
először
ám
online
legf
indul
kisebb
##óta
éve
telefon
lászló
##műv
##né
##kr
##ene
dob
háló
##rendszer
##ságot
csomag
##óm
jelentős
##biz
##ner
##jed
##oc
ismét
vág
bank
##szem
##veg
##ast
##sági
szár
##akar
##ay
kiz
ét
ható
jan
##írás
régi
##inc
számos
szék
##öny
##szabály
tökélet
##utt
vélemény
##tóber
##omat
##esek
kiem
október
friss
##enger
##által
mondta
##ord
felé
tevékenység
módszer
##elési
belső
segítségével
komoly
##vonal
istván
látt
fest
##őle
proj
oda
része
mindent
at
##éssel
információ
##edett
##erm
kert
magam
föl
évek
##irág
##szint
tűz
##ih
##uló
természetesen
épít
ek
##evő
lem
országos
típus
##nos
bűn
elkész
kedvez
##ff
megny
bab
érvény
ideg
##di
hib
##ilag
##ódó
hird
internet
tűn
szerv
egyetlen
##kív
##dési
szept
szövet
cikk
bizottság
##ark
##hetően
##éklet
benn
szempont
méter
időszak
mes
nál
társaság
vill
kínál
cent
##iméter
képviselő
##ológiai
legt
szeptember
##csi
##ítható
##ly
##zési
feket
tur
##ünket
ant
##nia
##einek
dolog
rendezvény
szöveg
mai
ev
kapcsolatos
koll
követően
tartoz
elérhető
##der
##ától
valaki
##olja
kim
november
veszély
millió
hő
##kívül
vegy
újabb
jobban
keresked
##belül
méret
##éből
május
azonos
ta
rak
előre
sikerült
so
alább
##színű
##tan
##la
bér
akad
##jen
##jú
gyűjt
##iter
motor
iskola
##unkat
##isztr
arany
##vi
szor
álló
##nyire
körülbelül
végül
##vezető
figyelem
ipar
##eum
jános
max
poz
láb
##rá
rendelet
##jából
kezdő
projekt
helyett
fejlő
talált
adó
##zése
kiegész
használt
érdeklő
##áns
##néz
##oda
##szaki
történt
honlap
hom
##ására
sár
biztosít
korábban
ahhoz
emberi
élő
gyakorlat
##jeszt
szerencs
mérték
##ument
felső
távol
bék
őr
közt
szell
igazán
sen
megbíz
##esítés
kiváló
##hatnak
hitel
##könyv
##rás
##uc
jött
közvetlen
bekez
##apcsol
írt
végig
##ancia
##emt
##ttal
éd
##igaz
sőt
alkal
évben
amerikai
##hatatlan
##enz
##díj
cuk
legtöbb
hazai
azonnal
##ton
##óval
sajnos
man
tej
természetes
halál
##cius
lényeg
du
ész
alkalom
##üm
meleg
sim
hull
gazdasági
##keres
##fal
jön
##sága
állami
idén
kett
seb
helyen
hozzáj
##ásával
funk
##sa
szintén
##ógép
##ius
the
finom
##fordul
##har
annyira
##acsony
adatkez
##fer
##vé
apr
##vég
kedves
tett
alábbi
megval
##idő
##vált
##pár
élmény
##etett
folytat
pal
vad
utc
angol
kín
március
hatékony
célja
csatlak
##fő
összeg
ingatlan
nyí
melyek
növény
##üket
kapott
##ga
##ásokat
elmúlt
ezeket
csill
##ox
szerintem
##beli
amelyet
ról
##ung
látható
esetében
tanulmány
vagyunk
kapcsolatban
##ism
általában
dek
##jön
##oldog
gyógyszer
teszi
##elése
tehet
rendkívül
december
addig
##hagy
pillan
ápr
##ern
##ezik
szil
harmadik
azokat
megvalós
jelleg
##rec
rek
lass
spe
##zék
kapcsolat
##ügg
ég
öröm
##ármaz
készülék
kutatás
##bert
inf
sokat
sorozat
csup
##ileg
gyak
##ódik
ajánd
virág
##ásának
mat
##egyed
gomb
##földi
jú
végén
##elek
eh
lenni
ref
fenntart
szolgáltató
##elte
kateg
##sp
fogad
mező
ferenc
április
viszony
##af
tesz
fekete
##br
piac
##kori
január
jogos
##lam
csú
##zó
egyedi
hamar
lakás
##iket
##hatunk
információk
mindk
##mód
engedély
ülés
boldog
##éve
kin
##ard
mintha
fiz
kísér
prof
dokument
für
diák
##ramm
felület
igazi
egyesület
részére
családi
hatalmas
##prób
##gatás
fed
tényleg
##ték
józs
terv
##fejleszt
pir
##gr
köny
##övel
##hatjuk
képzés
kock
aszt
##nius
##lev
egyén
termékek
küld
bizonyos
terh
weboldal
csökkent
##jára
péter
eszközök
##elen
egyház
##óra
modell
##óbbi
orosz
##ozza
##ari
##tuk
bú
ajt
elmond
azaz
##súly
##gyek
június
tartott
##úgy
##erő
köszönhetően
továbbá
##ológia
##ármester
egyébként
különleges
##műkö
kony
aug
kelet
ág
##ulat
ablak
##ítette
##ezése
mennyiség
kommun
származ
alkalmas
próbál
egyedül
##ái
##obil
nemcsak
##sorban
közep
##usztus
##alk
##ebr
##alt
korlát
##iről
##hetnek
vaj
##ándor
##etet
kerület
##ozni
##nőtt
##ármű
felv
eredeti
sh
##oss
folyamatosan
inn
##gyű
elektron
olaj
napon
ehhez
rendőr
##lcs
elej
##óf
kór
##ivál
##raj
##ro
##ésének
mindenk
különösen
##hogy
közleked
com
##ésével
##min
vez
##gép
magyarországon
teljesítmény
ajándék
visszat
akart
szenv
ekkor
##fér
##tag
üveg
múlt
lab
külső
kont
esetleg
tá
ell
milli
##mények
tartalm
kárt
##agóg
##árólag
##ású
##olta
katt
párt
józsef
tudjuk
##lám
ők
megfelelően
vagyis
beszélg
jellemző
##úzeum
##man
##urális
egészen
hit
étel
felf
##érium
##őket
könyvtár
dísz
##ektet
könnyen
kiad
szór
valószínű
átlag
gyakran
##ója
kizárólag
kedvenc
##besz
na
dig
reng
támogat
éjszak
gör
sziget
bőv
egyszerűen
tenger
##ílus
##junk
##ener
júl
felnőtt
amíg
helyszín
##hajt
ii
##ina
level
egymás
un
##örös
##nan
tün
rögz
##ack
augusztus
viz
működés
szellem
vizsgál
##plom
vágy
édes
gyorsan
##nyit
##osabb
ül
épp
##érd
sokan
mobil
elkez
takar
méd
tél
munkat
port
rengeteg
önkormányzati
##eztem
##őzés
febr
##álkod
regisztr
hegy
##fok
örök
női
##utatás
##erős
szerinti
közötti
területén
##si
##vizsg
igazgató
rec
számú
mög
##ancs
korábbi
ac
szomb
hús
rendelkező
együttműkö
##cion
bef
vet
##oft
tenni
keretében
tartalom
ellenére
önt
szavaz
rag
elfogad
úr
komp
##ezi
település
sér
##zik
agy
állat
miniszter
végzett
##követ
megelő
soha
színház
előadás
##ciós
##son
este
napi
ill
had
##ozz
ingyenes
gyakorl
érdekes
bíróság
arány
##bizt
##alap
elkép
erd
new
csupán
meghatározott
##iát
##ötét
eljárás
##napi
##valy
est
mester
elsősorban
múzeum
érintett
gyüm
teszt
##özben
hozzájár
##keszt
##esít
kiállítás
##részt
##ázis
digit
fa
fű
##se
szal
##ővé
munkav
##faj
stílus
bejelent
meglep
műszaki
elve
gazdag
##jegyzés
eszt
győz
##endezés
rád
##ismert
község
der
##étől
alacsony
önmag
##ust
február
##edés
kul
##szolgált
negyed
kattint
##ájában
mon
polgármester
##imális
nyilatkoz
ének
száma
##ansz
felül
áld
ötlet
vett
##met
hátt
jéz
##átum
kellene
írás
##akkor
független
##séggel
alig
nyer
gyümölcs
toj
budapesti
fürdő
szom
utas
július
módos
##urg
of
##örtén
norm
##társ
##udomány
partner
##őd
##lós
művel
##köt
##hatók
pál
##ázat
faj
##encia
tav
kommunik
##bev
látog
templom
if
amelynek
felhív
##orvos
gondolkod
##olc
bő
##akoz
mad
##oltam
link
##üv
szolgál
utóbbi
megismer
miután
##élt
rendelkezik
dem
katon
tavaly
tíz
##hess
lelk
valóban
állás
előny
tökéletes
tagja
ebből
##sh
##képpen
##kan
##kezet
gyöny
megtalál
##omás
sötét
##intéz
##nyal
eltér
ugyanakkor
francia
##elmet
##eset
##ven
deb
krém
képesség
met
őt
alkalommal
szakember
kriszt
tömeg
nyert
nehez
blog
##if
##rat
##ították
miközben
készített
kol
táb
szim
##esztivál
##össz
##öd
gyönyör
sokszor
##port
##osok
alapvet
felett
##ácsony
jogszabály
##elhető
jogi
járt
megvált
alkalm
##ekről
üd
ráadás
kemény
##vá
bekezdés
##elmes
##hang
##sem
##mentes
megszer
számítógép
##ítva
melynek
múl
senki
hot
tiz
##hetjük
##nie
##világ
kiválaszt
##értelm
gl
minél
mindegy
kever
jelenti
elhely
közé
karácsony
##men
magán
politikai
##land
ít
történik
jézus
napja
imád
##ík
##aként
működ
##ozása
##aliz
ser
időben
##aink
megjelent
környék
##ottam
kider
pontosan
##ontosabb
hatály
##örgy
voltam
tápl
rák
kulturális
legfontosabb
káv
tam
##figy
zsír
til
szociális
fül
róla
széles
szét
##ánál
akinek
lehetett
hasznos
gal
kuty
kötelezett
ráadásul
legk
húz
reggel
##adi
ruh
gazdaság
vörös
melyet
##zás
##lét
##nék
park
##haj
lehetséges
időpont
eleg
##játék
##pol
többet
tánc
pénzügyi
nappal
##ook
növel
folyamat
fell
kevesebb
##abban
##ente
zaj
energia
##olaj
készít
##ségét
##őben
##zott
##építés
tév
##fa
felhasználó
kivitel
##egr
##éseket
igyek
társadalom
##ózs
##bar
##éj
észre
##itív
##áború
modern
##ila
lehetővé
szereplő
rajta
oldalon
##per
fegy
társadalmi
gyerekek
asztal
log
munkatárs
##úg
évvel
elektrom
##lov
vezér
elvég
dokumentum
összet
kollég
ideje
tit
kerék
##csoport
iránt
##orú
előző
létrehoz
kan
##szk
##tter
bármely
közösségi
belőle
##odás
biztonsági
felúj
##ódott
##zetes
##szich
pat
##felé
##ellett
gábor
szeged
##lett
##ná
harc
me
kérd
##atait
##urkol
bármilyen
##íció
ri
##sé
milliárd
##ítják
to
##uha
##szó
igazság
oper
ágy
leveg
utána
beszer
venni
elektronikus
beszám
##osztály
hagyományos
##ekhez
##álta
##ólag
olasz
tudni
kategóri
hirdet
gáz
román
megoldás
szóval
felk
##bor
##ákkal
hagyomány
nekünk
könnyű
hideg
lehetőséget
szenved
lov
állandó
főváros
##szék
tudományos
egyáltal
dal
##hetünk
##tartás
ügyfél
vidék
##lott
kölcs
titk
tegy
pih
##óban
##okból
népszerű
##iás
##tr
nők
kapcsolódó
lakosság
digitális
erről
egyáltalán
##term
izg
idegen
##ainak
azóta
##terület
##ce
mut
##jog
szállás
bajnok
rét
kisz
##tekint
képest
küz
élvez
bél
betegség
##ésben
egészséges
növeked
##ula
##közel
##ezzük
megért
tudomány
attól
automat
##olvas
remél
len
##aim
érvényes
neked
##ation
vasár
##ikat
szakért
##ője
##rtok
##adni
fiú
tetsz
##janak
minket
utal
egyéni
látvány
néha
##elmény
vé
neve
fesz
het
hatóság
cl
speciális
felvétel
balaton
##náz
többször
elkezd
mögött
##emben
ben
##irat
indult
szí
ere
##indul
egészségügyi
büntet
##usok
született
##ebben
tol
kötelező
sándor
pént
fac
papír
kijel
elj
gra
##ie
debrec
##állás
##ítására
minős
##oktatás
költségvet
pedagóg
##űk
##seg
teremt
##ítást
##enged
úton
eladó
eny
kre
##emet
##elést
központi
üzleti
felkész
leír
gyönyörű
látni
esély
##mond
főleg
zolt
elleni
##áért
egymást
##álkoz
tájékoztató
rejt
önkormányzata
zavar
meggy
hűt
##lom
maguk
sét
##abil
##ikusan
közösség
elején
##höz
##eként
működik
civ
##ere
##vit
##jával
időt
kapcs
olcs
pályázat
##zük
csillag
##ságát
##eml
##almat
opt
##hass
valah
##áltam
nélküli
remek
##esszük
becs
gyeng
##eim
assz
felszer
##inkább
mire
##elnek
##irány
önálló
##ocsi
hord
##aránt
##víz
jo
résztv
zrt
##ized
hétvég
jogosult
magad
##ork
##óknak
##omra
##ux
aktív
##ukt
összefügg
szakasz
ve
##vér
tudtam
külföldi
##éséhez
műanyag
öreg
kérjük
kék
csok
érzés
##gond
##érkez
györgy
részletek
üt
fl
gum
##ájuk
valós
##ológi
konfer
funkció
üzemelt
beny
egyaránt
szek
##ónak
##aut
kereskedelmi
##gazdasági
valóság
nyár
centiméter
hivatalos
##bír
befoly
idős
módosítás
##ezték
zoltán
##vát
##vét
##imum
##ektől
adatokat
fém
##ítását
la
mindkét
szolgáltatások
zene
szeretet
##ford
kód
előad
védelm
civil
##úsz
old
kötet
et
##ökö
##elve
lél
továbbra
##uper
klassz
fejlődés
leginkább
##ották
##tized
tette
erdő
hí
tanár
##sért
bemutat
vizsgálat
töltött
szé
maradt
##ezhető
nyolc
##ugár
##éig
##ttel
##str
no
##ájának
lassan
ifjú
elektromos
jót
##nyel
ilyenkor
##óc
mintegy
##eleti
feladatok
határozat
gener
##vállal
pszich
##ence
haza
töm
##ométer
##co
szed
##mar
##ítjuk
műsor
száml
érzék
##bán
##sd
ellent
évtized
kov
liter
hotel
lelki
##vári
##ándék
ger
nekik
puszt
alapítvány
ep
hangsúly
hajt
években
##rány
##vers
##azon
ur
tájékoztatás
tészt
li
csinál
ára
eredet
melléklet
hulladék
ezelőtt
##forg
koncert
##ever
ett
##onta
szakkép
szabadság
##bé
##értelmű
##elmiszer
ud
kulcs
valamit
tük
list
mindez
művész
akit
tapasztalat
ipari
pót
ügyfel
pet
hum
válik
##oskod
mennyire
szerkeszt
fogja
délután
kölcsön
legy
reklám
##ezési
működő
befektet
tűnik
részes
megtart
levél
##éket
áram
##kap
klub
leb
porn
tartozik
div
massz
##atott
biztosan
megtekint
embert
##mi
bolt
indok
piros
##eznek
##ocsát
nyílt
berendezés
lek
xx
ge
pro
összesen
bíz
élelmiszer
##hol
fesztivál
intézet
##isták
##való
ideig
hab
előbb
##ásos
##akban
##mérs
##ölgy
idéz
egyértelmű
szig
##pa
##erek
mások
kórház
##atart
##uzs
keret
összek
nálunk
játékos
belép
vagyon
##ilm
##edik
pozitív
tizen
mindenkinek
kib
go
##gyel
##hi
tartozó
nyári
##nevezett
krit
pé
megf
laj
##hetik
##ini
##tünk
ti
feldolg
nyíl
##okról
##áruház
##unkban
fűt
házas
##pad
##jenek
stat
változás
far
##qu
konyh
##száz
##elik
energi
zsid
panasz
mellék
cukor
konz
várható
##onyol
rajz
színes
iv
##jének
##atták
##alma
faceb
helyre
kő
##ellen
jármű
ölt
bevezet
hallgat
letölt
##mérséklet
av
##gyűlés
intézked
birtok
megye
pad
net
andrás
rob
valamely
els
összeh
feleség
tamás
hány
véletlen
fénykép
követelmény
##techn
állt
részét
##űrű
hung
alkat
helyet
szinten
##kos
cip
sm
##áshoz
folyamatos
óri
étkez
##ávol
all
amik
apró
jap
elnöke
##csap
##akter
##asztó
nyar
visszatér
szívesen
##éért
##aival
elsz
akció
csend
tábor
informat
lez
bútor
##hatják
alkotmány
##pon
kifejezett
##ória
közön
##elnök
döntés
##úttal
többek
terjed
##ozási
##énnyel
magyarországi
##enő
##udományi
tartó
látogat
használható
súlyos
kilométer
##isztikai
kop
##ecsk
szépen
##elep
városi
ajánlat
végrehajt
cit
jutott
##már
##étlen
##ama
liszt
uj
##országban
##tér
mor
jegyző
ezután
tudják
álm
reform
felügy
használata
közvetlenül
egyben
vasárnap
kiadó
kompl
figyelembe
élt
##ped
tárgyal
részben
emelked
ennél
##iskola
##aba
##ura
mellé
tartós
rózs
bejegyzés
kezdemény
semmit
##ves
##eik
kötött
ton
sajt
udvar
sal
esk
nyugod
##nes
attila
szlov
megnéz
kísérlet
##órum
házi
##vásár
##munk
kedvezmény
vajon
átt
beép
##erny
ko
##ációt
tulajdonság
pillanat
##szolgáltatás
től
##orn
horvát
jelöl
budapesten
hozzájárul
##hetők
átal
##öng
munkát
##názium
##akad
védő
fert
##imnázium
felsz
##cső
##ry
##ései
említett
##ita
regény
##jünk
helyes
##okk
egyszerre
##ákban
##irod
##ódi
webáruház
milliméter
##jak
lesznek
valószínűleg
kiemelt
szoft
##külön
sos
##unkra
##fogy
hű
táp
strat
##ektor
szándék
##zió
##evők
##eccs
magasabb
##gyal
##őző
tulajdonos
egyesült
előfordul
##krét
##irk
##iában
mak
ránc
akadály
ür
tudunk
válassz
katal
összefog
közz
buk
##ektív
öszt
jelenlegi
minőségű
szeretnék
melyik
##agramm
tiszta
##íthető
elé
post
##ipari
sk
parlam
száraz
##évén
mát
úgynevezett
##ítési
japán
bü
##ekvő
##entr
javaslat
##ülni
folyó
oktatási
leh
remény
fenti
egység
szeretnénk
kapcsán
##úti
állít
szeretne
dom
igénybe
##hatsz
miskol
koz
##nyom
érett
dekagramm
##vid
##zár
##part
típusú
rug
kellemes
##ird
békés
tudok
sikeres
probléma
##dar
fórum
zárt
##etni
klasszikus
vállalkozás
forrás
##védelem
lajos
válogat
##ese
újság
stratég
vall
mutatja
##átus
##usztr
megint
kezdet
gyermekek
adja
alakul
##emű
##csk
munkahely
sors
sar
##ezked
lehetne
prod
befej
##gyűjt
##szob
vád
eb
##okhoz
megfog
##tatott
tar
vik
##ason
kur
##oljuk
viselked
sincs
##polg
##amos
##fokú
##tatni
enyh
##ésében
##enekar
##hal
hosszabb
tip
feny
pi
##ásában
co
##úd
##essége
küzd
##und
fur
##airól
##eivel
valamilyen
valamennyi
láttam
utazás
##akkal
közöl
aktuális
veszt
##yel
száj
idei
##ultak
hasonl
meghív
##nunk
túr
színész
##ütört
átalak
ph
mondjuk
megprób
aminek
szövetség
kért
ob
##adása
évfolyam
##ogatás
csodál
sch
ww
kevésbé
mértékben
beruház
##ózkod
áron
##edék
tudás
felfed
befolyás
##ezon
##fr
##jebb
##inál
hangulat
tál
csúcs
hálózat
tv
íg
vic
komb
csütört
mennyi
programok
##öngy
##beszél
varázs
nevű
megőr
mérk
együttműködés
bul
##áris
halad
lemez
fegyver
##ságú
választás
##újabb
kutató
emellett
útm
##ítve
legújabb
kovács
tab
##ian
kerékpár
beáll
##me
##ach
annál
változat
miklós
##áros
##ítésére
háttér
##ikát
##aszn
lakó
hozzász
ily
amire
alsó
##játok
mozgás
árt
##ítik
tanfolyam
csütörtök
##jait
ösztön
gondoskod
##élyes
bán
kif
##viz
követő
tőle
lám
visszav
adatkezelő
##edő
gondolat
számomra
##eztek
héten
iroda
##ica
figyelmet
karakter
mondja
kiny
##ona
képek
formában
megoszt
csel
##park
##rtelen
##zést
számított
rendelkezésre
##nom
azoknak
vastag
##odott
##ászt
##étek
korr
##ódás
##polit
od
rám
világh
minőségi
##oba
elker
nyugdíj
alkatrész
##ora
szűr
tavasz
##áni
##ukor
gyan
##ésű
beszéd
kultúr
kifejezetten
fid
részvétel
határoz
kaptam
amelyben
##őként
##olható
valójában
szerepel
szoftver
hozzáfér
##amin
agg
érkezett
##központ
mél
##rég
adni
menü
videó
mondani
##forr
fizikai
led
mult
tok
bot
##rak
##igh
európa
vége
rit
menet
car
anyagok
##pály
bölcs
hiába
csökken
bors
kup
jellegű
ugyanaz
www
oldalán
ás
ag
önként
##szabad
ettől
##ensúly
tartózkod
menek
elkövet
iskolai
engem
parkol
##bevétel
##ültek
##hatod
előkész
alapvető
##io
káros
doboz
kelt
tartja
mielőtt
##ítették
des
##anyol
##ler
megúj
étter
##szeg
##átok
kamer
vonal
használni
települ
erdély
adag
szol
##ova
forgalmaz
##foglal
##enként
##ulni
##dönt
tojás
##ünkben
köteles
##magas
##nevezés
gól
##ein
elismer
##ítését
szolgálat
kort
szerepet
benyújt
kérdése
mol
##embe
kém
történelmi
konkrét
tég
drág
##jék
##atikus
forgalom
##éves
##imp
keletkez
tábl
integr
##aik
kegy
író
ős
köszönöm
hamarosan
feltételek
kiegészítő
réteg
##széd
minisztérium
##van
amivel
##háza
tudnak
##ókkal
##ekből
többen
pest
spanyol
meccs
rádió
##képp
amúgy
vásárlás
megter
rendelete
kivétel
orbán
ismerős
szür
segítséget
gondolom
##den
hőmérséklet
bát
értes
##szav
tartalmazza
kerek
##für
pályázati
területen
egyetemi
tervezett
##hatóság
kaland
köv
döntött
ajánlott
##szerep
adatai
##rény
keny
tetej
mih
##ze
keresztény
amint
török
tisztelet
alkalmazott
##uth
##ászat
mikr
##pap
hiszem
izgalmas
férfiak
levegő
szeml
as
##szent
nyak
csatlakoz
brit
felmér
##álása
tudod
bemutató
szar
##ezs
meghal
##őkép
hálóz
szomszéd
teg
##beszer
##tok
##elők
##ax
falu
orvosi
##jött
legfel
hirtelen
ajtó
irodalom
megkap
sebesség
##ikon
##eszköz
##rajz
ennyi
alatti
##zák
megváltoz
akk
amelyeket
##olása
##ellát
innov
megkez
ural
annyit
##tör
szálloda
média
látsz
##szövet
##védő
mindegyik
##tartási
##öket
pénzt
óvod
ült
##szal
megerős
graf
##ect
##olikus
szabó
gramm
##ányi
szót
ban
raktár
din
örül
érdeklődő
rendszeresen
##olják
eltávol
##szerűen
gimnázium
mérkőzés
vak
szuper
##cel
mág
isz
##ain
##ászati
idején
téli
poszt
kicsi
##jes
##lem
##keting
##jal
elk
##aszkod
##ey
hétfő
felelősség
személyiség
hozzászól
si
##éria
nyelvű
##ítést
##pan
##ezve
kiter
képet
##dalom
agr
##ezést
kihív
tisz
észak
gazdálkod
megfigy
kb
##énél
doll
oka
##lány
tagjai
##csa
tudta
lef
##olták
tétel
csont
##lok
##ozta
hozott
talaj
ft
játékok
nyitott
##fehér
##verseny
##onc
ideális
uniós
kérelm
##ori
fark
##zuk
elvár
##ara
történelem
szegény
tartani
##tárgy
##íni
rel
##ukció
látszik
értékelés
vállalat
##utas
##össze
ro
fejezet
##igr
zenekar
##dob
káb
megadott
##növ
##eres
##csal
zenei
##ásokkal
##veszt
értékes
hallgató
szlovák
révén
##áci
##shop
árak
##állam
##tető
##oltak
##terjeszt
##fejlesztési
##szerűbb
körülmények
eu
kínai
valódi
tib
##használ
##éshez
legsz
##yú
veszi
##omba
főz
hivatkoz
lás
##anszír
vigy
##ity
tra
kissé
megtan
szoci
bu
színű
járó
velük
felismer
szórakoz
##olva
írja
keress
esküv
##aján
illeték
határidő
##ásához
##ác
##akör
semmilyen
stabil
szoba
hitt
##eteket
leny
##zen
##red
regg
károly
##beteg
beállítás
anyagi
részletes
fagy
szabályzat
kormányz
##áng
##esztő
várja
roh
hasonlóan
fek
##alkot
építő
vevő
##odik
jelentőség
ritk
##álták
bejár
##cser
kiprób
elind
technikai
neg
karban
vizsga
megszűn
##ness
##ákra
kialakítás
csodálatos
unió
##nám
##ülnek
magyaráz
sajtó
jutt
##aid
lengyel
kiáll
szerzett
napján
képesek
gyöngy
fidesz
demok
##ográ
felb
térkép
görög
asszony
iii
##lők
##evíz
##etem
fűszer
##eltek
##bet
szüksége
parad
szervezetek
vizet
ék
szün
klím
##emp
útmutató
méretű
ext
disz
szállod
ellenőrzés
##ásait
##ítsa
##ezer
heg
fan
vette
testület
sziv
ábr
fejlesztési
fájdalom
##ítők
ezáltal
##ice
előzetes
##ájú
messz
só
kényszer
##tál
múlva
##ián
egységes
szépség
vékony
jö
##ash
üdv
ik
lenn
##iii
sosem
##edelem
dolgok
elképzel
vezetője
rendszeres
mindössze
jóval
róm
##edzs
kedvel
bemutatás
befog
életét
edzés
nyaral
majdnem
##elég
hangul
##ibr
kiemelked
technológi
gyakorlati
színek
##ékek
duna
##öp
ezúttal
pot
színvonal
##lel
##sziget
##ságban
##lési
##gyógy
mez
##ítottak
szintű
megtud
magukat
fogalmaz
szop
##író
művészeti
garant
velünk
készlet
művészet
szülők
szellemi
fokoz
gondoltam
szombat
##rák
##tartó
üzenet
##ológus
##áit
krisztus
állnak
ítél
megelőző
szempontból
fellép
##észek
kezdve
magunk
szezon
önnek
nevét
tudott
##epp
kapu
kárty
nappali
kos
##kér
sejt
feltölt
##íték
bevétel
##ítók
nar
kreatív
##heted
abból
mosoly
##előre
napig
bevon
fo
sugár
##atta
##idej
##assa
érte
böng
ahogyan
##baj
##nánk
szerkezet
rendszerek
hatása
háború
##org
##zők
együttes
kerülnek
##jegyzék
##chan
ellentét
vásárl
##ella
életmód
tü
##lop
előtti
munkan
##ezésre
##elték
roz
kapcsolatot
leggy
kiadás
fájd
hős
ital
##bl
mil
##akció
ugye
ler
##ament
busz
márk
működési
országban
feladata
megszok
qu
győr
##gatási
marketing
##asonl
személyi
óriási
tót
közönség
##fajta
##orl
utáni
intenz
##ázó
##ázás
##adja
##nel
##cionális
##ötte
kockáz
élett
hétköz
zsolt
mem
alakult
megrendelés
közzét
szerencsére
vétel
dolgozó
koncentr
##hetett
mezőgazdasági
kikapcsol
sam
##ettünk
##okba
##pány
eddigi
##almak
repülő
eltérő
konf
későbbi
biztonságos
##áltak
nat
szerelem
pub
##biztosítás
##ulátor
velem
kultúra
szeretné
##tom
meglát
mihály
szeretettel
eltűn
tartalmazó
alapanyag
létezik
eredmények
szeretném
ly
dip
mindennap
fejlesztése
plusz
##ővel
##olási
##pénz
##bázis
fár
egykori
vásárló
##társaság
látogató
cig
fia
nehezen
kidolg
##arad
##üst
horg
##mát
##vebb
érzékeny
megközel
##ová
képzel
hajd
tetszik
alb
tom
esett
##árok
imre
##pót
bont
##ti
munkavállal
##ate
##esi
kutya
előterjeszt
hátrány
fiatalok
##ástól
##ává
##iszony
hazánk
hiba
vicc
állapotban
adta
negatív
könnyed
##rium
##oni
kezelő
szülő
közbeszer
##vek
acél
folytatás
szik
napot
veszélyes
hírek
del
kellem
megoldást
recept
##eljük
eső
kezdett
##annyi
##elekmény
##közben
##ered
megbízható
apart
##ros
egyelőre
goog
havi
biztosítja
kiderült
hozzát
##prém
##ezze
cseh
lep
##ásnak
##asszony
adatkezelés
érdeklődés
készítés
lehetősége
fent
##ign
legut
##nünk
különféle
art
származó
he
##ikum
##sággal
##edd
##eltem
##ró
tájékoztat
##ázni
google
##óst
##cz
elhagy
sav
közölte
vallás
láz
##attam
dolgot
lehetnek
##ömb
##rot
##ségben
##au
kocs
érdem
árny
##őj
kétszer
sír
##tön
évig
prot
ip
éreztem
kutat
ellenőriz
rögtön
heti
##gar
függetlenül
kettő
zuh
nyugati
méltó
időszakban
komplex
böngész
tek
dug
##szoba
##ana
gyal
##ókusz
őszi
##ébb
glob
##kit
##hatott
szerd
parancs
mindkett
terméket
tökéletesen
bak
##bi
##oszk
##aját
##program
úgyhogy
debrecen
##szol
##emat
##kárt
org
maximális
##her
elkö
##itt
űr
hungar
##ándul
aud
tükr
sért
évente
sokáig
szén
##vei
##kő
szolgáló
##vesz
szel
##film
tisztelt
alkalmazás
gyűjtemény
kötelezettség
őszint
laz
##ázott
tudatos
top
televíz
bármikor
##elemben
dolgokat
katolikus
jók
veszprém
##tében
valahogy
##ellyel
osz
mindenképpen
egyeztet
##jam
megvan
fak
kívánt
olvasó
naponta
segéd
remélem
##sztikus
körében
##jármű
##inkat
fognak
##etése
##ule
szombaton
##erv
tanév
##járt
nincsenek
recep
híres
##kl
##ászár
nemrég
##rág
lépés
állatok
napos
feltétlen
megvásár
rov
használja
gyártó
##ogó
külföld
lond
##éti
##éta
akiknek
kilenc
##asztr
szál
extra
gab
biztosító
szállítás
miniszterelnök
idők
##ákon
teszik
vezeték
##egyen
informatikai
szempontjából
bev
strand
##emlék
évad
##keresked
időjár
régió
táplálkoz
##moz
élete
##ukra
##örg
##eszked
felmer
beszámoló
##ipar
hullám
vitt
##ight
rendkívüli
##ünkre
információs
tóth
##élni
előír
sütő
##hetsz
##aték
bál
rugalmas
képző
műt
##mán
akadém
elvesz
##szár
##szög
##ebbi
internetes
nyújtott
##xx
gyök
##rab
kak
immár
kommunikáció
##ulnak
##szervez
##edet
##irend
##ys
leírás
finanszír
##óba
tri
##ezd
feszült
politikus
néven
##issz
jelenik
emi
baleset
beav
forrad
helye
##talanul
con
##akra
általa
tegnap
időtart
rendelés
jelentette
ned
ismeretlen
izra
testvér
előseg
szegedi
##tern
##ows
##járól
készítmény
uralkod
##ix
kaz
kál
összegy
színpad
kecsk
##ohány
működtet
következtében
vettem
dekor
##tük
##hid
##lon
##inni
tekintetében
##szerek
négyzet
##jától
balázs
innen
megr
tonna
tran
helyiség
ezüst
lehető
teher
##üsp
##ődés
gyakorlatilag
javítás
##ror
kes
aktiv
##űl
elkül
jég
írta
társas
születés
megnyit
kávé
##szervezet
lux
szől
emiatt
magának
pihen
##pia
##anál
szeretem
##képzés
bennünket
##eiben
figyel
##üveg
jóvá
mostan
joh
##gazdaság
##városi
valamelyik
órán
nőtt
##ozzák
##történ
kitölt
##icsom
##jav
konferenci
asz
itthon
olcsó
személyek
összehasonl
évre
verzió
közösen
repül
##ibb
megérkez
##amb
pénteken
pop
##zon
##essé
lélek
##ekció
nevet
sc
legfeljebb
villamos
newton
válogatott
bill
##aradt
##életi
jelenlét
miskolc
elől
jelölt
esetleges
##ilk
némi
bo
sikerül
##szerző
##xt
##ogató
következmény
címmel
##izál
létes
##gó
csavar
látom
##arc
közlekedési
káp
mégsem
##fürdő
##tiszt
##cím
rab
szerepe
boly
problémák
##kány
##ásáról
##iban
##agn
##jut
férf
lé
elter
kampány
##ikk
ásvány
dolgozni
elenged
nagyjából
megtalálható
##izált
érzem
##iós
bekezdése
som
kiadvány
##öztet
alv
hátsó
##onat
magyarok
bes
gyula
tudat
épült
##eknél
tehetség
##usi
érdekel
béla
##takar
jövőben
megkérd
németország
##akon
##ogramm
tibor
életet
egymással
##ala
elért
szerviz
példány
##ulladás
##megy
##helyi
kényelmes
##szolgálat
polgári
##süt
##szolgál
reag
tür
##fest
herc
kíváncsi
bra
##csökk
##ettük
##eri
legend
világban
bárki
##ítjük
##atokkal
percig
tudós
apartman
##fény
ígér
##aiban
korm
alkoh
##eműkö
##onnan
rajong
meghatározó
##kó
közepén
##de
##gé
folyt
##ore
##kert
##ilt
lat
dolgozik
anal
##uni
akkum
##éppen
segíteni
telefonszám
regisztráció
műhely
törzs
burkol
hatással
##hiv
megmutat
szűk
##esszi
intell
parlament
##atlanul
fogyasztó
filmek
pak
viszonylag
közr
hál
biztosított
vacs
fotó
domb
gyom
hűtő
svéd
közlemény
##fut
##biztonság
facebook
amiben
adatvédelmi
ebéd
ret
anya
##ességet
összefoglal
##bban
kényelm
fejlesztés
állampolg
elmondta
##özés
karácsonyi
kérelem
##huz
tanulók
##ódnak
##attak
tekintettel
##őn
##méter
erősen
##sej
transz
rendőrség
közeli
dur
kén
##ite
##ásoknak
előtte
szervezett
legalábbis
viktor
püsp
órakor
nyilvánosság
átv
szabadon
##ném
csom
újd
katonai
pic
##tus
kilát
##sorozat
mozdul
tes
értek
kétség
##igur
szeretnél
kifizet
menni
átlagos
piaci
cr
##nép
megcs
##óni
felhasználói
értem
citrom
barna
határozott
##öttem
irodalmi
##ada
mas
alapító
##olnak
mus
jelentősen
csík
##einket
mária
élni
##iság
futó
##éh
építés
pinc
technológia
választott
támogató
hajó
fre
ló
megszüntet
közelében
##sav
ra
felsor
napjaink
##álisan
dátum
##októl
kínálat
reggeli
hev
##atni
allerg
dics
ult
ször
##téri
rang
egyrészt
##tud
pontja
kombin
szap
##óként
garanci
korszerű
akarja
altern
##avart
közreműkö
##ényi
székely
mal
well
bib
bonyol
közgyűlés
technik
szigorú
előfizet
alkalmazása
##hessen
##ser
támad
megfogalmaz
##mod
##rád
paradicsom
wind
információkat
tele
megalap
##éje
##test
magunkat
##uj
kincs
lo
yo
##eire
hatására
szabályozás
betölt
szállítási
kilogramm
felejt
látja
várjuk
információt
elkerül
kedvező
gu
szervezeti
##yű
létszám
##játsz
her
##sék
bé
##odr
számunkra
##oktatási
belt
##elme
##őke
nyilvános
segíti
környezetben
##gát
kirándul
másrészt
forró
negyedik
ba
ismeretek
váll
kijelent
mérleg
##barát
tanszék
bővebb
szi
embereket
foglalkoztatás
olimp
##ítások
##húz
##mos
homok
end
##igazgató
hold
felép
##áknak
##haszn
##ota
különbség
amiket
köszönt
legjobban
áldozat
nyúl
##bolt
díjat
hatalom
református
##atokat
hé
tás
sv
római
kezelése
barátság
adatbázis
##vös
##ésnek
##ish
története
divat
világos
dohány
##nának
##aira
##itány
migr
##rik
szánt
##egyetem
##ménnyel
##etes
körben
könyvet
##úton
csatorn
##atórium
##titk
iránti
védelem
feles
gát
edző
ren
betegségek
pozíció
számtalan
##lehet
legyenek
péntek
cégek
erőszak
tető
napra
szelet
##ossuth
##más
##pel
személyesen
tanuló
kattintva
##kát
köztük
csip
joule
alternatív
megfelel
##ítanak
##asi
ifjúsági
##asztott
##gyárt
##áján
autók
##yás
##mis
##levél
önkéntes
dis
##hivatal
##burg
mész
dupl
páp
##házi
kossuth
komment
##atainak
alaposan
##ózis
nav
##ozók
intézmények
hül
felhasználók
diplom
pre
##reg
éven
drám
##unkon
vibr
párhuz
hihetetlen
##eiről
illat
elfel
##osta
kijelző
zsidó
erdélyi
megtiszt
tetszett
profi
##osszabb
##akozás
rendező
##azin
##jába
elny
lezár
többség
##őknek
használati
##ózás
téma
##uny
##háló
gumi
dag
ec
ráj
keleti
##rol
bemut
embernek
bármi
kiderül
##bajnok
csaba
egyértelműen
##esszor
##különb
##aknak
##kapcsol
##arnok
##vert
##ektek
##forrás
szabvány
##olást
maj
tanús
maximum
homlok
labor
##lek
édesany
húsz
sző
beszélgetés
pécs
us
##ozs
fölött
mindenféle
matemat
életben
füst
támogatást
forduló
##lése
by
##echn
gyalog
katasztr
##olyan
főszerep
közigaz
fiók
költségvetési
megakad
egyedülálló
mindennapi
óvoda
obj
##mill
##hy
##omp
szabályok
sör
ítélet
os
fizetési
konyha
kab
koncep
mindenkit
százalékkal
##ater
konferencia
félre
##őkanál
újdonság
jegyzőkönyv
szenny
megegy
##regy
mechan
mesél
alapú
hajnal
vízzel
eljut
##orna
##ozást
akciós
telek
##suk
utat
részvény
büntető
##esse
étrend
kézzel
pálya
erzs
látott
használják
rendben
speci
nyáron
farkas
esik
mást
baba
meglévő
maradék
távolság
##kező
tó
##választ
##age
déli
##szerelés
##ódni
kapta
püspök
##ulása
tartják
napok
feltétlenül
mondom
bátor
elveszt
##omban
##párt
##miniszt
##viteli
messze
##ételt
fék
col
##edt
tűzolt
beavatkoz
kapcsolatok
csinálni
részén
munkás
árnyék
pénztár
legmagas
debreceni
elegendő
végző
díja
könnyebb
egyensúly
alapvetően
világon
sárga
kéne
vezetői
pil
##önny
modul
elegáns
nyilatkozat
voltunk
hozzánk
körülmény
##ödik
érkezik
rát
##atú
elnevezés
##ítél
tű
##ősen
adomány
po
láng
ellátott
események
##hegy
terep
##ure
foglalt
gerg
##cia
lemond
mindezt
vala
##olcs
##ációja
okos
ügyvéd
##ájára
##otikus
médi
kivált
adatait
adatlap
##alitás
pa
sikert
vezetett
beszélt
tág
##éseit
##sen
nos
sex
erkö
szexuális
véget
##nként
##kezés
néző
helyszínen
##ülek
írni
férj
##anyagok
betart
játszott
kockázat
region
##ításra
##rajzi
##vad
visszaj
##álva
jelentés
régen
kecskem
utcai
kommunikációs
##adta
immun
komolyan
automatikusan
étterem
fogva
nemzetiség
épített
magatart
megakadály
evőkanál
akkumulátor
szokásos
sop
##pát
ja
mic
kislány
prakt
meghall
városban
zsuzs
##meleg
beszélget
##ájával
kortárs
profil
##alista
##szerint
om
##zus
kiemelkedő
leány
##puszt
átlát
nézve
vidám
lő
windows
ös
stand
tat
kifog
nyíregy
híd
lim
non
##lo
lehetőségek
figyelmeztet
fajta
végére
szakemberek
##ásról
##bíróság
##üsz
##álják
találtam
##ezők
programot
kerültek
extr
forintot
azonosító
tagállam
világot
írtam
teljesítés
jud
legmagasabb
diagn
##ásokra
trend
normál
üdvöz
ausztr
bűncs
##jogi
mindaz
vitamin
##jén
masszázs
mart
méz
rez
kamat
##pt
##almát
fővárosi
##ődési
ugyanúgy
rendszert
kezdődik
életében
##özött
ábráz
gon
romant
##artó
teráp
melyben
függően
vezett
kapható
építési
##nod
mac
mo
##roll
gyülek
tűnt
sí
##ail
##nák
##ítse
##olók
##anc
megköt
##gazdálkod
##dni
##fű
##jedt
potenci
fanta
nektek
minimum
##kezelő
##szel
képerny
intellig
formájában
kollégium
nemes
évfordul
kérem
folyadék
menedzs
##álnak
##ításának
##eid
##kezelés
értelmében
##csat
tanult
teny
nagyszerű
elemzés
##berg
végső
igényel
##rum
klin
izom
stressz
nor
útvonal
kimond
##esett
##etű
onnan
##verz
##kar
##itor
kizár
nevelés
órát
elérni
herceg
it
##ide
kapac
trén
##művel
éjszaka
írásbeli
tantárgy
sl
akartam
##yal
helyzetben
sűrű
##felület
szerdán
##ies
választási
céljából
másfél
##ügyminiszt
felszín
áru
szilárd
másnap
alól
összeáll
##ellel
##irodalom
ani
elégedett
elolvas
állap
kond
kiss
ugr
##fogó
fokhagy
##fáj
rendelt
narancs
páros
ot
##gő
vám
##ükben
résztvevő
kellemetlen
állomány
##áson
##onal
text
katasztróf
munkáját
##eszi
##ania
sík
szerszám
mára
gépek
evang
##obban
kosár
##rét
hamis
elszám
beépített
poh
##etben
ennyire
visszak
bog
##helyzet
eléggé
aj
##por
##élly
##műves
közelebb
abba
antal
töröl
##tani
párizs
##szerte
fant
legközel
igénybevétel
korai
virt
##ozzuk
cor
munkált
polgár
##harm
##oth
angyal
megszokott
folyamán
album
hüly
megd
órás
alul
államok
##helyen
dzs
gépjármű
##sszel
közbeszerzési
mennyiségű
választék
##lép
##ességét
##rát
##sük
hétfőn
evangél
##del
##ozik
anti
elad
pól
##önyv
##ump
mutató
##kat
nagym
regionális
okozott
alkohol
##alan
##vánd
##atőr
linkpark
hölgy
védek
##get
##ébet
cell
##kam
elev
zöldség
bennem
örömmel
##ozva
takarék
világháború
igazából
érettségi
érintő
##attyú
##évé
döntő
ád
##odat
##űnő
ételek
tim
##jet
meglehet
##telep
##csomag
amin
##rac
kézi
hig
ősz
##otor
##rid
##szór
kielég
kettős
felszerelt
biztosítani
ebbe
lelkes
##rác
szalon
látogatás
##nár
cégünk
diákok
ügyintéz
olvastam
barátnő
feletti
magazin
vásárol
intenzív
##opp
példa
dun
##lin
környezetvédelmi
lehetetlen
olvasható
támogatja
gyár
szolgáltatást
szokás
foglalkozik
##enyi
természeti
##bo
küldött
##örtön
##kék
##kora
politika
##fesz
##asztás
##darúg
közlekedés
fele
esti
##beszéd
dollár
időre
kifejezés
mostani
záró
##szert
tervezés
érzelm
amilyen
érzi
problémát
zuhany
váz
sa
ritkán
székes
véletlenül
terjeszt
kezdte
egyetért
elkészült
felülvizsg
##gondol
áp
##lása
##ozható
zseb
##égzés
üres
többnyire
miként
csaj
kocsi
##olád
ünnepi
tulajdonképpen
magában
világbajnok
hatású
passz
##aszk
tudsz
pornó
##arch
appl
##menet
kedden
##ájékoz
##ola
pedagógus
minimális
off
abszol
kozmet
segítő
##hozatal
##ick
##tudományi
##emi
változatos
képzési
elmélet
wellness
rendelkezésére
összev
##isebb
##pe
hétvégén
wh
felhívás
##lemez
horváth
legszebb
##éllyel
feltüntet
kategória
##entő
##iben
##csú
##ue
korszak
##prof
##köny
ismerked
lépett
címet
##művész
##viszony
résztvevők
hód
kerest
##éséről
elképz
nálam
##áink
eldönt
kereső
##istály
manap
érkező
vadász
sztár
admin
végtelen
cserél
##ekor
##sá
##adar
##ségének
átvétel
labdarúg
##ények
##becs
koncepció
##alizmus
##iny
rosszul
éva
képen
videók
##kocsi
##álok
napirend
kenyér
##ps
##száml
##anyar
##művészeti
megp
sark
korosztály
csütörtökön
lend
rett
környezeti
##ret
azután
merev
titkos
cam
##vin
eredménye
látta
res
lányok
arch
részéről
terén
hatósági
elb
dolgozott
##astély
vonz
rájuk
##adrág
##olf
##őtlen
##ezését
anélkül
nyelven
##igy
beval
facebo
melyeket
##pedig
téren
megjegy
felel
normális
elrend
sorban
##ítottam
vír
középiskol
##onális
előz
index
piacon
ox
husz
útján
##engely
visszavon
bármelyik
##lus
bok
plat
fogják
szárny
interjú
dinam
##ilván
rendelkeznek
északi
##bér
##aidő
védett
erzsébet
munkaerő
##ge
versenyző
ellenzék
szürke
tartalomjegyzék
ütem
szalag
elment
##ításához
százalékos
##források
manapság
öl
kialakítása
harminc
bocs
erej
##ítt
szett
##ili
szerkez
megállapodás
vendéglát
oktató
imp
használatát
akiket
esetekben
elsőd
alkalmazni
##szek
alum
benz
lu
emelet
szerver
helysz
lánc
lágy
máris
délelőtt
megjelenik
##ikában
kapnak
kerti
##nyelv
tartomány
pécsi
rokon
musz
szov
fu
befektetési
ágaz
##áld
bíró
kompet
##áram
kezdődött
##papír
legnép
hajland
bekövet
robot
##vidék
alkotó
##abda
hd
kv
##lang
##mint
ezeknek
sérül
stb
istent
burg
ránk
##értve
létrejött
tanácsadó
tömör
##ettó
mentes
várt
jóváhagy
pe
##osító
ka
##cal
##cska
hatályos
válság
forintos
indítvány
fogok
kapsz
körű
tekintve
##ellenes
próbálkoz
elutas
anna
széch
csendes
vendégek
szög
javasolt
olvasni
egyenlő
folyamatok
ruha
spir
foglaltak
emlékeztet
lovag
##itek
önmagában
konflik
napokban
földön
löv
##óv
##szál
munkanap
##szül
szekrény
##költ
ismeret
kutatási
##ement
##telezett
ros
büszk
régóta
nik
##technikai
##údió
##hív
szabályz
leírása
fantasztikus
kivéve
szag
találni
katalin
##ttól
alkalmazható
irányuló
##odó
körüli
telefonon
ku
##csill
##utal
magával
mérnök
fokozott
termékeket
futam
seh
##jek
hozza
gyakori
##level
##nemű
esztét
##ood
életre
területi
működését
meglepetés
nyugodtan
televízió
módja
##árium
megjelenő
rendezett
##aktív
furcsa
##terv
mindannyi
börtön
##őtér
filozó
ajánljuk
valahol
eger
főként
képeket
foglalkozó
##igény
számukra
##ításával
eredetileg
ellátás
lebonyol
szereti
##etta
vonatkozik
köztársaság
##pat
##felvétel
meglepő
bajnokság
kosz
srác
vállalkozások
nyilvánvaló
nyers
használatával
interneten
következik
négyzetméter
##adat
ébr
felek
##század
számítás
sajnál
oldalt
sima
könnyedén
##ival
bic
évet
változások
elismert
hibát
legfőbb
koord
mentén
facebookon
##közép
megteremt
nézni
kezdeményezés
bez
rock
európában
eltelt
feltár
csökkenti
##onyi
államtitk
terasz
helyezked
hozta
kérdést
áldoz
értéke
szünet
legkisebb
úsz
bt
andre
százaléka
trag
##tatja
##autó
lettek
beszélni
szörny
##letek
helyét
amelyik
fajt
##jához
cső
megállapod
hirdetés
##ságának
szakma
drága
motiv
éjszakai
szólt
karri
##iliter
készíteni
fizetni
áttekint
önkormányzatának
közepes
fen
##onként
hozzáad
air
ádám
resz
lig
végez
kisk
hav
telt
##rit
csoda
éjjel
##iák
##ogén
terror
##ádi
##letes
fizetés
kel
pető
tavalyi
adnak
mért
##ességi
hivatás
kihasznál
##hasznú
kora
red
források
alud
##állító
##élked
megszab
rajt
amellyel
cipő
##ájékoztató
puha
beton
##fejlesztés
gondolkodás
##eredmény
tevékenységek
autós
design
élnek
árp
globális
írásban
hajl
fontosabb
feladatokat
hálózati
vágott
játszik
meggyőző
alakú
humor
nyilvántartás
ken
lop
##anya
kérdések
##fia
##utaz
szerb
kötő
szálláshely
összegyűjt
##osi
##esebben
köszönjük
igazgatója
bocsát
##ise
##zésére
orv
szomorú
kastély
utólag
##dnek
ügyben
luxus
mek
titok
nyomás
statiszt
alapja
szolgáltat
pedagógiai
##top
##ácsi
jótékony
##ulását
közhasznú
nyomtatás
##őlap
##bes
emészt
##nénk
szerettem
legr
##one
felirat
anyuk
szolnok
les
többsége
felügyelet
def
##ítsuk
megkeres
megtartott
jobbik
szabadidő
##ínium
##riss
megszól
john
kaptak
ügyész
##óka
félév
deciliter
elhelyezked
legnépszerűbb
vonatkozóan
idősebb
sérülés
##edőny
kolozs
##ógus
##ekbe
közigazgatási
##rán
hátra
##egyenl
lista
##oknál
cigány
##korú
##everjük
##nát
sváj
kisgy
árfolyam
infr
##imaliz
bur
szemlélet
bizonyíték
leírt
##ítsd
##mat
##iról
kiválasztott
judit
##cukor
utasítás
méh
##tatta
vasút
támogatási
osztrák
cseleked
##idéz
nettó
rt
##szív
elengedhetetlen
##ességgel
hagyjuk
##astr
biztosítási
strukt
induló
szerepelt
tipp
##alit
országok
##ger
amelyen
fertőzés
##ea
##ásai
ugyancsak
hirdetmény
tenn
##zsák
##latok
elfoglal
##áf
juh
##air
sajátos
varga
tüntet
meglehetősen
tesszük
##ótól
hú
levő
mozog
anyagot
véve
környékén
csepp
##ságok
atom
tartalma
##adást
láthat
##jaink
székhely
##táb
megfizet
alacsonyabb
fekvő
##eret
kéri
univerz
hard
villany
tengerpart
alumínium
band
##erte
bus
előadó
billent
helyén
betű
támogatása
figyelmét
bm
adós
készen
##asszal
időtartam
abszolút
előterjesztés
megrendelő
##ánya
műtét
bérlet
##elyem
fit
##üd
felem
##észett
műfaj
##fort
érez
##atát
##aszín
##ric
kivitelezés
ízlés
##éni
pul
##ezent
legh
##ográfi
posta
##ükre
fős
kívüli
##eződés
tavaszi
##ukban
következtet
##személy
áruház
gyerekeknek
##ozását
forma
pillanatban
épül
gerinc
szit
##adók
bátran
kital
jogok
tevékenységet
mich
táplál
kip
könyve
népi
mondhat
többé
emberiség
bio
munkáltató
##oli
priv
tablett
bad
elfelejt
összefüggő
##idejű
we
biztosítása
rej
##alommal
betegek
kiköt
várják
euró
gyülekezet
##oznak
kiszám
##képes
##mes
énekes
jász
elhatár
autom
rendelkezés
##nya
értelemben
térség
téged
szembe
isteni
értékű
mondtam
polgármesteri
##szállítás
állomás
testi
században
felir
tájékoztatást
bizonytalan
##hatékony
álláspont
##zan
megbeszél
cont
csoportos
kezelésére
megér
szereplők
##inél
megismert
sorrend
ősi
##oldali
sopron
gyar
művelődési
végleges
évszázad
tükör
szőlő
tanú
kártya
nyugodt
nyílik
vegyes
##kák
##oldalú
funkciók
időjárás
bit
mini
bevánd
##törvény
##édia
##váltás
festék
cm
##érzet
holland
honlapján
##uss
célra
költségek
elemek
szavak
okozta
feláll
tanulás
akarok
##app
##lé
publik
hím
kihagy
padló
hárm
xv
fól
családok
##körű
holnap
##umpl
sáv
london
nyilvántart
##df
##hiány
ritka
fogyaték
tréning
msz
összhang
##ilkosság
pontot
keszt
vizsgálatok
hatást
##üvely
szovjet
##nyomás
nyelvi
ötven
amatőr
székesfehér
sür
##eztük
kiegészítők
azonnali
háztartási
gyulladás
ellenáll
##mérnök
csere
nád
##sereg
talp
megnyug
##érdek
gyenge
márka
##astrukt
ugyanolyan
széchenyi
tudományegyetem
##ikailag
##sár
filmet
felfog
##dög
##ítésre
##ikák
##kezett
##nének
##szerkezet
##ith
számát
önkormányzatok
technológiai
otthoni
csodás
sej
célú
lépcső
gyur
fogom
szakértő
találkozó
mágnes
vicces
ismeri
párhuzam
##uttó
prec
nyitva
##rei
##odor
orr
tep
szán
házasság
prém
##járó
##szen
mt
##ance
##ítással
nyel
oroszország
magára
##arak
befizet
gonosz
##vitel
##esítő
változó
terve
megoldások
olt
könyvel
igy
##ópály
tényező
kérelmező
##edek
ml
##ségű
##ucc
kard
kialakult
gőz
##eléssel
szintet
hajlam
##ré
macsk
kezdtem
koordin
tak
kerülő
can
redőny
##hall
jönnek
látványos
##ültem
##arend
eszembe
elfogadás
##csok
fejlett
##ko
terem
érhető
amiért
##ky
##uli
végéig
##teljes
borz
##rém
bánt
tát
##ségnek
##ökök
ügynök
csapata
##esítési
##hő
##zor
##ily
kapni
megkönny
óráig
berend
tettem
születésnap
húsvét
árpád
kábel
##udvar
csaknem
##gatni
##ekszik
összetett
meghird
fasz
##hettek
##abiz
állítható
##áljuk
elfogy
csíp
belől
tartozék
bőrt
##piac
ann
jövedelem
##tanács
egymástól
##eiket
segített
##own
álom
munkakör
csapatok
sérült
##onstr
rad
##pressz
megyében
hibás
molnár
ékszer
oszlop
##urt
izrael
elküld
alex
eljárást
portál
szk
elsőként
##kanál
sárg
adminisztr
##onikus
gyári
##ítéssel
##illant
lennie
veszélyeztet
kilép
bőven
jelzés
lakossági
örülök
bart
infrastrukt
dü
rizs
elindul
##lant
kinek
##fil
jogú
okozhat
magyarul
##edni
##legesen
rém
folyton
hy
mondott
kristály
csokolád
csirk
##bem
##kereszt
tilt
statisztikai
szabott
iskolában
vízben
ultra
szokott
felbont
san
egyip
fájl
madár
kategóriában
##név
romantikus
gergely
##ükkel
email
könyvek
refer
##edit
stúdió
elméleti
eredményt
bruttó
állítólag
tartom
költő
nevében
mérg
létesítmény
ugyanez
ni
értékesítés
emlékezet
##ulajdon
##ívum
előáll
##odra
##osak
játszani
egyenes
telephely
ellentétben
túlél
kutatók
##asd
##űg
gyűl
fáradt
prémium
igazol
vibrátor
megszabad
géz
##felt
gaszt
nincsen
##rai
##uta
márton
parkoló
keverék
léz
##jében
függvény
szerződést
hiányában
##útor
##család
adap
ejt
##oid
járul
bővebben
aty
##illa
területek
körzet
##óczi
##feldolg
indított
kialakított
törlés
királyi
tiltak
csomó
valaha
##ajtó
kapunk
energiát
vettek
##ónia
szakközép
játékot
##lex
tészta
##attart
ázs
személyre
olcsóbb
lámp
##we
##íthatja
##gatott
elsődleges
vizsgálata
##minőség
##bra
tanácsadás
kezel
##ismeret
belek
##bél
emelt
tisztában
szat
##semmis
eszm
nyomtat
fix
erősebb
##ekvés
##munka
##cél
felesleges
tartanak
tünetek
kint
##spir
kamera
##cip
##ann
xxx
ruház
fogunk
##esztés
krumpl
kialakulás
báb
mg
belüli
##mester
felől
simán
gyanús
véleményt
éh
finn
fordult
alkotmánybíróság
irányba
mutatkoz
tésztát
##házban
alkalmával
hétköznap
élvezet
parlamenti
##ous
##yl
tönk
af
param
illetékes
##ségre
##rag
szerelmes
krón
szórakoztató
sert
bemutatása
##aki
többféle
##its
rich
fotók
petőfi
csuk
rosszabb
##ical
csatlakozó
békéscs
tanítvány
barlang
hozzájárulás
##ulta
alapuló
századi
állampolgár
##izáció
akadémia
##are
##ball
##ásainak
dagan
felvon
szemmel
nyeremény
ste
##emre
szemét
veled
vidéki
##he
sza
egyházi
zala
##ária
németh
##íd
dáv
tort
folt
csúsz
sült
##láb
bossz
általunk
rö
##hatalmaz
frank
tartotta
##mérő
felaján
főiskol
vasúti
frissen
kun
zavart
##ire
##édelmi
pályán
változik
kiegy
előírt
bevezetés
hábor
mellette
laptop
##onya
címe
deviz
megszervez
##odni
##edi
belváros
##ley
##szünk
sajtót
##profit
elf
smink
hazánkban
karrier
afr
bány
dik
geszt
kaka
kiindul
akarnak
kontroll
szam
vihar
##telenül
kibocsát
mm
vir
##technika
bemutatkoz
##áta
nemzetiségi
##off
##forgalmi
rögzített
hüvely
##apasztal
egyszerűbb
anim
##ild
##emmel
sikeresen
##házak
szerződési
ilyes
adjuk
hozni
bűncselekmény
##onok
##öb
##attan
költsége
praktikus
alkalmából
naptár
aránya
elsaját
nonprofit
elfogadott
forradalom
##jével
túra
##seb
##unknak
jövőre
tálal
dávid
pog
##tette
##erület
bron
##jei
beszerzés
##vent
rág
##fól
szilikon
info
ke
hozzám
teljesít
##bej
##olására
grat
hip
hatását
pok
folytatott
munkavégzés
halott
készítése
kád
##ren
##atra
baz
megrendezésre
elindult
bol
##almú
rendes
tisztel
üzemeltető
fogyás
lovas
külföldön
helyezett
teli
##aktérium
veszteség
jelzi
földi
##amentes
meny
egyfajta
amiről
ost
gondolt
hősziget
karbantart
laboratórium
##ikája
hagyja
töltő
##zött
éles
nyílászár
ilyet
lejár
arab
##jaként
##szerkeszt
##ars
hidrat
sürg
sós
megsemmis
körbe
ajánlom
nagyköz
rendszerben
észl
rendelkezések
sütemény
bírósági
boldogság
##ikáció
autót
##hont
javítása
##ogh
érthető
nézett
órától
##bal
##csere
ötödik
tevékenysége
tervek
fókusz
fiúk
fekszik
miszerint
fürdőszob
##era
megbeteg
kritikus
készülnek
házban
hungary
könnyebben
ápol
csatorna
felszerelés
teker
ragy
üzen
temp
fák
mostanában
##állási
fokozatosan
orvost
##nyeg
formátum
lassú
konzult
##yt
##elefon
kukor
tegyük
pohár
aláír
garantált
medenc
standard
megment
##őnek
lakos
##ésekor
##kinek
##ike
sül
találtak
egyiptom
gre
##peny
##ítan
micros
zsák
címen
döntést
kérni
nézzük
dv
##uma
alaptörvény
életünk
bekapcsol
hetek
buda
##lót
##zá
megtört
moh
##ct
diagnoszt
növényi
pas
apa
rász
radi
tudták
##jainak
##vág
kart
adóz
liber
feldolgozás
jer
kiszolg
##icion
figyelemmel
##növény
sab
márt
fontosnak
fokozat
professzi
kiterjed
munkák
kezelt
##ácsol
zsig
virtuális
győzt
jam
hallg
##atja
hiteles
rendőrök
másol
##ower
napjainkban
##ned
akkori
szélső
hajlandó
folyik
szobák
##gyűlési
ten
számon
hiányzik
automatikus
fűtés
matt
összesz
##falu
lan
monitor
optimális
demokrat
##éstől
világszerte
pu
veg
ágnes
vándor
##bud
egyike
hátul
autób
születési
miskolci
dav
##forma
antik
eredetű
átmen
##git
##obbant
állandóan
megjegyzés
feltűn
élményt
felesége
mark
##ességében
pis
eleget
közölt
doktori
##művészet
illetően
kezelni
soh
látogatók
éri
chr
mondan
szurkol
nevezett
pin
irányelv
idővel
cer
hangszer
##ségeket
##ukk
árnyal
##őkkel
változott
vágjuk
##ulást
növekvő
##úv
szin
leves
negy
odafigy
kism
távú
##politikai
időnként
települési
##lánc
##ss
számot
##roid
beltéri
tot
##vezetés
egymásra
hónapban
hétköznapi
##rika
egyidejű
játszó
##lók
baráti
lényeges
usb
##két
fennáll
fantáz
##essék
tárgyak
##olok
megjelenés
##anna
##ikó
##özik
##jukat
##számú
honlapon
harag
fényes
felújítás
##ivel
képtelen
rozsd
##vére
vita
vacsor
diét
fenntartható
##oter
ügyvezető
házhoz
ásványi
napló
##ript
kifejleszt
illeszked
automata
enni
##osztás
##edelm
állni
iskolák
berendezések
olvassa
kérdő
megvéd
vallási
##ham
otthont
menekült
wi
szebb
adtak
mondat
kitart
írtak
##eld
elpuszt
##ins
illeti
életem
változtatás
belet
##harc
összeget
kitűnő
polc
használjuk
megismerked
mindenhol
kerületi
elkötelezett
turisztikai
felsőoktatási
származik
szarvas
ismerete
megmond
not
##űlt
##olv
##szekrény
táplálék
ellenfel
nyomán
té
##letet
munkája
támadás
kiválóan
akarta
kem
ideiglen
minta
szoros
petr
félelem
szervező
alkalmazkod
hallottam
egyenesen
##ermek
lehetőségeket
produkció
start
sug
címre
tilos
##pótlás
gomba
keresünk
beker
hadsereg
úti
##őleges
belef
okost
értékek
szőr
férfit
szeretnének
tranz
##inform
mondják
##fordult
lib
zsin
vesznek
fogalm
termelő
sztor
##ozások
nevelő
meghalt
felelősséget
git
feladatot
hatvan
jöttek
bed
megkülönb
tudomás
kiadott
imádkoz
települések
##ino
vírus
gyakorlás
mese
##ítsük
##hattak
gyert
nézz
élettart
őrölt
ahonnan
bales
beleértve
megvizsg
ragad
##három
részében
horm
##uty
tisztán
black
goly
helyére
várhatóan
lehessen
##ilkos
átadás
minősül
feled
alg
mobiltel
lényege
hatóságok
soroz
jogviszony
továbbiakban
nehezebb
völgy
inst
gyerm
##kom
dupla
honnan
eljárások
##kás
vásárolni
##iával
##uti
különben
tettek
védelmi
érzelmi
valakinek
lyuk
baktérium
##jöv
##burkol
szerinte
pályázatot
proc
##étele
rip
mekkora
izm
jak
##függ
néhányan
##nai
pun
levéltár
generáció
keresni
do
számla
halála
egyez
##izni
##ságra
inspir
##darab
kalap
támogatott
##gáz
nehogy
előfordulhat
búz
front
da
##föl
kézik
labd
szerette
perces
kivon
újj
hozzájuk
fázis
##ésen
##kerék
témakör
előadást
lefoly
kisfi
védelme
##vállalkoz
ráncok
kérdésre
szerzői
állítja
android
szennyv
tünet
megél
gál
kapos
alkatrészek
tagok
tisza
full
sel
távon
tették
##kond
##les
katona
élénk
veszik
demokrá
paraméter
dim
genet
##bizony
bicik
erk
##áinak
##orit
##óbert
akkora
sohas
konfliktus
##bol
megad
épületek
jogszabályok
nyugdíjas
ezekkel
csomagolás
biztosítás
korában
fürdőszoba
##ednek
emleg
főbb
választani
nélkülöz
integrált
##mik
erőt
professzionális
bármit
ausztrál
kóst
biológiai
kecskemét
bázis
akarat
##mező
betét
összeállítás
kísért
pászt
tankönyv
helyzetet
kaptunk
##med
sw
adják
szemlél
##omi
hallgatók
emlékszem
zajlik
##szky
mellékhat
színben
intézkedések
##ánnyal
##inger
tapasztalatok
york
##őre
##ezhet
##krém
dió
##álható
országgyűlés
értesítés
technika
##egység
##ókép
határozza
tartoznak
paj
megsért
ingyenesen
hallott
vigyáz
csek
mutatott
garancia
##non
##sák
koron
közterület
harmad
jogot
ezekben
növények
elképzelés
hónapos
tekinthető
##yn
##etlenül
kapcsolatba
webshop
elhuny
magánszemély
adunk
blokk
bronz
##hár
akivel
lakások
öltöz
##viv
##ülése
rendezés
juttatás
elbír
sokféle
##abizt
dan
hete
super
##kai
foglalja
kerám
##ítéséhez
energet
módosítása
szeretett
mérsék
import
##umot
apja
adatkezelési
eszter
gratul
##önd
olyanok
figyelni
helyettes
nyilvánosságra
##izálás
avagy
henger
anyagokat
gi
szert
vegye
bibl
számol
intézményi
elgondol
##che
my
nyomon
##ace
##abilit
sajtótájékoztató
##kul
##ásuk
elár
##ovics
felszabad
##kedvel
##nevezése
##eszközök
##jatok
##előbb
szállások
jöhet
bonyolult
##helyett
csisz
termelés
képzett
edény
will
illusztr
##ínek
határon
költségvetés
rács
menüpont
##szabadság
platform
##arát
nevelési
látjuk
eredményeket
kézműves
negyven
##álunk
hiánya
légy
ábra
szub
kormányzati
free
felszám
##essen
huszon
bod
tanulni
##tad
tüz
lecs
féle
comb
##inket
##testület
##kí
tudtak
##inkron
jelenség
mélyen
ragaszkod
klíma
cz
növeli
nyír
végezni
fejét
színe
szt
kinéz
epiz
lehetőségét
akarom
kiegyensúly
beérkez
##orvosi
##avezet
##asson
versenyt
son
##nyug
felmérés
összeköt
főszereplő
középpont
##ímél
módosított
stratégiai
mc
mont
##úrt
vették
prim
tengely
turizmus
motoros
tartály
településen
alapon
katalógus
érdeklődők
programja
##roncs
gam
##öttek
mátyás
izz
##esetre
tők
##raszt
##izz
községi
hun
##fesztivál
fogjuk
segítenek
végeredmény
drog
eszközöket
követi
##bank
átfogó
##ászok
jelző
végzi
önök
pályázatok
színházi
##bőr
##szerzés
dir
##épít
megjelenése
figur
vonat
##ofon
igényes
fejlesztések
##országi
##álom
szervek
édesap
##üszöb
##res
szerelés
fejlesztő
brü
elválaszt
microsoft
##mez
##edre
joga
video
##nyújt
##vegy
regisztrált
célok
fe
visszajel
géza
hobb
##szűr
##helyek
előnye
##mentesen
pén
dolgoznak
##lcsi
##ódást
##ájába
##olya
legyőz
##álatok
##ülést
medence
##mozg
többiek
dor
lic
uk
vért
megtér
kellő
győzelem
pápa
##szolgáltató
##eztünk
bent
segély
dokumentumok
tin
alapul
ciklus
szimból
sereg
rózsaszín
##tél
megnevezés
ele
szűrő
beruházás
tw
##űv
mindenképp
##ational
leszek
##lást
##inter
szoktam
mindenesetre
benzin
vari
méteres
##biztosítási
##őzs
##kárty
font
tisztesség
vállalkozó
sárkány
magány
##ásokon
melletti
##attól
olykor
egyetemen
rózsa
szektor
évesen
évforduló
köröm
szakképesítés
erkölcsi
kijelölt
##otok
jelkép
ülésére
házak
módszerek
##ommal
várom
reakció
vezette
anál
méreg
vizes
vív
##box
eléged
kemp
páci
várost
kitüntet
badacsony
##dok
fogyasztói
kifogás
tesznek
##köd
##örög
##anyagot
rendesen
vállalati
lásd
göd
##odnak
megválaszt
ösztöndíj
legutóbbi
falak
##hette
simon
infl
területeken
fogsz
honvéd
postai
##állomás
mérete
örökö
pillant
##edben
magasság
iszlám
##dai
maros
szorg
##méretű
búcs
szénhid
lenyűg
mis
megelőz
anyja
mozi
róbert
munkak
##űek
vész
##sik
##úny
##épület
##ításában
kutatások
tea
szennyvíz
megjelöl
kollekció
##hát
télen
##mann
gombra
tengeri
szolgáltatási
nyerte
teret
próbálja
feszültség
sohasem
cselekmény
##gátló
vont
csoportok
produk
##űri
kore
legfriss
##ítót
##ánkat
king
##abbak
olimpiai
##gyors
repr
##hét
oldalra
ördög
téve
jack
grill
mesterséges
budai
##ékenység
eleve
derül
sir
vaníl
kontakt
kálmán
alkotás
tisztító
vizuális
fektet
kezdeni
nyomtató
hatáskör
utóbb
megszület
##azz
elérhetőség
hátter
ugyanazt
kiép
okirat
##szerződés
##ítunk
##olna
vag
##korban
módosításáról
##orlás
képviselet
lámpa
szivattyú
bevásár
célszerű
számok
kapacitás
közszolgáltatás
igénylő
államtitkár
egészet
##ivat
szapor
érdekelt
don
weboldalon
##szolgálati
félt
##hull
lényegében
megtalálja
##hög
reh
zong
családtag
##leked
##energ
kört
##ogatni
##ülési
számítógépes
tért
##jéről
##han
amiből
##üzem
mobiltelefon
legkés
utcán
főiskola
##tatása
válassza
térd
túlzott
hittem
illetőleg
akárm
bas
mta
##gyakor
közúti
nála
bekezdésében
legfrissebb
aqu
##tterm
csep
fárad
##biztonsági
bag
tárol
kanyar
hozzával
dolgozók
hazug
gombot
szakértői
##zunk
legközelebb
kezelési
nevezet
##po
##elék
##etést
legkésőbb
autópály
terhesség
##képző
##hone
##kártya
alát
munkaidő
hatálya
ellentmond
picit
különleg
pilis
réz
ezeken
korlátozott
szep
##eihez
munkatársai
jelentése
rut
vig
párbeszéd
##lad
##üld
kérte
lencs
##eletek
elfogadja
villám
##apr
lakást
igazgatóság
##uck
##hős
##hord
szigetelés
##állomány
fordított
##ösen
hozzátart
##ary
utazási
blu
##zések
értelme
szenvedély
irányító
erőforrások
gyöker
kút
részletesen
turista
emelkedett
rev
##ator
##ítom
adás
rákóczi
##millió
ildik
##ességek
táblázat
erdei
tán
lin
ülő
konstr
keletkezett
##désével
noha
vidékfejlesztési
hivatalosan
mand
ron
unok
személyzet
véleménye
##fejt
versenyen
##ogatott
eladás
##betegség
##özet
légkond
páciens
olyat
mutatják
somogy
##íthatatlan
##élés
##izm
kereskedelem
##kot
egybe
óvatosan
mérés
távoli
kattintson
##ién
##ikával
##amat
budd
hagyni
lettem
szerelm
ízület
humán
##átorok
hála
##etési
angel
home
##adási
char
nedv
csecs
szorong
kültéri
fennmar
##ánok
összege
átmeneti
##itást
##so
ident
működött
ezekre
gyártás
##lanak
jelentkező
##vezés
ib
építész
je
##veszi
innovatív
##abbá
##ossá
##íthat
előírás
várunk
##regény
műszer
vállalatok
háromszor
##ökké
székesfehérvár
##csarnok
adatot
##olhat
megind
összességében
mr
sof
##sy
##berendezés
robban
oldalról
kémiai
work
##onóm
##onnyal
percben
comp
##aimat
rejtett
köd
felold
kiír
értéket
prom
időn
matematika
várni
objektív
##élyeg
##ítések
igyekszik
képviselői
##esd
megtörtént
##őtől
tényleges
ká
##lási
szinkron
készültek
valakit
megváltozott
őszintén
nadrág
europ
nedves
császár
##örzs
##hetőek
mértéke
##ainkat
textil
kasz
nőv
##zatok
adódó
##ünkbe
kattints
helyezés
forgalmi
##ánia
legel
közülük
tünd
ket
alma
fűző
##sport
precíz
csinált
megítél
centrum
navig
##ami
##zy
fenyeg
szír
##uzív
történetét
##ápoló
sé
##össég
labdarúgó
sehol
##jelző
mennyiségben
##oszkóp
csakis
hatékonyan
létező
díját
elhunyt
##ulhat
##állt
sikerrel
foglalkozni
méterre
pillanatok
szokat
vásárolt
összhangban
okostelefon
##attuk
kompetenci
célunk
országgyűlési
düh
csók
##esnek
késő
utcában
##hasson
ötv
elhang
rán
kezelőorvos
buli
##utak
##ítettek
felhasználása
hangsúlyt
párhuzamosan
elöl
eszterg
elvis
megtapasztal
felügyelő
spirit
bö
meghatározás
felvet
utód
##asztok
kárpát
vesszük
diéta
hátrányos
kókusz
alp
nyíregyháza
star
##ékos
jelentett
elnevezésű
kezében
befolyásolja
##kutató
gyújt
előd
bevált
képviselője
rekord
csik
érezni
##ellátás
játékosok
konzerv
##etik
enyhén
mul
szóba
apple
fah
halálos
kávéz
tüdő
##els
megkezd
mentő
tejszín
kok
##nád
tábla
##cik
területet
növekedés
##eo
szűz
megs
természetvédelmi
elkülön
jogát
intim
aláírás
fűz
##riai
mutatta
kellék
válnak
felhasználási
fogyók
béke
##ünknek
akarsz
íme
csong
adót
##itása
szállító
intelligens
gyűrű
állom
kapitány
döntése
megvilág
egyeb
nyújtó
ajánlatt
helyezkedik
##oxid
##keny
építmény
tartották
##özi
##vél
szokatlan
bir
változata
felfügg
vent
másképp
tartalék
##ataink
##ney
kijelöl
viselkedés
bécs
pdf
útra
kívánja
##uf
természett
belsej
pus
exkl
bennük
összefüggésben
informatika
tőlük
amelyre
##ősebb
fon
gen
regener
##viselő
szerves
##érzék
eredményeként
##iek
ahová
mindezek
##lettel
kiszállítás
teljesítése
felszól
##aiból
levelet
cic
mász
##atlanság
##kóz
##vételt
korban
esetek
megkülönböztet
##ámat
sap
forgalomba
##reszt
szabadtéri
lisztet
egyből
díjak
zsigmond
##sc
##uel
usa
##omet
rehabilit
gold
lapos
forgató
témában
sűr
##jetek
állvány
##építő
létrehozott
ih
embereknek
kormányhivatal
##dó
élők
##elvény
szób
nemi
olvasás
szervezők
mészáros
buz
##aktor
soros
védelmet
illeg
szolgáltatásokat
extrém
##mir
megoldani
##ade
cseng
mindkettő
pezs
##ájukat
##szalag
változtat
jellemzi
##ánként
tanulmányi
pici
fölé
gyógyszerek
andrea
##ennel
##ismertebb
fenyő
rost
sol
megbízott
dől
halm
##növel
##zavar
világában
formája
rendezvények
felnőttek
komplett
adatainak
##ronóm
senkit
vízi
mélt
szolgálja
órák
##óly
##rep
##inte
töreked
play
óriás
moszk
macska
endre
##ativ
próbáltam
egykor
egér
egymáshoz
##list
esküvő
zak
kivonat
kuk
##ezem
eltűnt
##rop
##usa
járnak
tanulmányok
előadások
sams
plus
felében
##assuk
fotóz
keser
havonta
húst
bajnoki
egz
ügyfeleink
gondoskodik
gyul
##ünkön
hátha
igencsak
jellegzetes
mögé
műve
kezdetben
értékelést
foci
##akozó
kering
hónapja
fill
gondolja
fotós
szerda
szeretnéd
##esked
amihez
eltölt
vezetés
##ugr
bécsi
cirk
kivételével
##lish
komolyabb
fri
hozzák
állapota
összefoglaló
##vak
##nit
gondolkoz
##lim
##éjét
##akciók
legmeg
##isztens
##telenek
real
léleg
##antól
ujj
bevezető
legutóbb
kezelhető
##ügyminiszter
sajátosság
trump
erővel
kívánok
köszönhető
memóri
következett
hamarabb
együttműködési
máté
mindannyian
##ccs
kerete
játssz
nézd
bálint
fuvar
zar
billentyű
negyedév
jelentkezik
étkezés
##zünk
##etét
agrár
ront
##motor
ragaszt
kud
hatóanyag
észrev
üzemeltetés
letöltés
dáni
helyben
követni
történeti
##rász
##örök
festő
segg
kibont
##mp
felét
megjelölt
horgász
megtakar
bezár
mennek
gyorsabban
toll
árul
mozgalom
megyek
pléb
cukrot
klinikai
##ottan
svájci
##ozták
##felügy
tárgyi
történetet
esküvői
kemping
demokratikus
##ich
megalak
szexi
##jesztő
stratégia
megtanul
##áza
írása
csatlakozás
##urb
kerülhet
##cell
show
##vágy
készpénz
rövidebb
samsung
luk
##mit
általuk
##napos
ga
akkr
utó
tanító
körm
folyamatban
működése
királyság
ütköz
mérő
repülőtér
hozzáadjuk
##zését
indiai
dez
##hold
arg
fogadja
##akk
néztem
pusztán
##vehető
##ezésére
ellátó
teszünk
opera
várnak
törvényben
közzé
sát
kedd
szobában
##ápolás
csir
##cium
ügyfelek
georg
számodra
szeme
belföldi
##várium
david
tartjuk
rop
prop
##áskanál
##osnak
szükségünk
jogszabályi
átlagosan
főoldal
operatív
illeszt
birodalom
átmér
visszaigaz
ug
gondot
önállóan
csecsem
szű
gyerekeket
nyújtani
felvételi
parf
##ee
jelentősége
torony
barn
eredményei
röviden
kontin
futár
készülő
fényképező
##szárd
adták
plak
lefelé
tartottak
##kocs
##áltuk
##készítés
##intézet
##kur
##szavaz
felhatalmaz
##emen
gondolatok
orvosok
audi
lejátsz
keverjük
győri
##ekul
##ream
##bizottság
##dve
beszélve
megmaradt
lit
magabizt
gyakorlatban
munkanélkül
pur
##ling
##ale
##kodás
építészeti
szeretek
ellenőrzése
nyertes
szőnyeg
szerepét
katasztrófav
áfa
##jére
##fot
szelep
istennek
üdülő
kézikönyv
##folt
kapja
##eszk
közti
elhelyezett
hangsúlyozta
újonnan
munkaügyi
exkluzív
##inom
forgat
holl
##ítson
légi
táplálkozás
zseni
gyakorlatok
elkövetett
otp
kiegyensúlyozott
mex
sóval
kezét
rendszere
megelőzően
szembeni
##ságosan
##ágyi
forgó
vét
jöj
mu
pontban
kezdődő
rozsdamentes
##eszter
##nehez
##orld
roma
riport
##ukkal
##enné
összer
megalkot
##atib
örökség
##politika
magától
##gazdálkodási
null
találta
megemlék
akarunk
étterm
weblap
pálink
##ael
szakács
hosszan
szélesebb
rand
pénisz
##ülve
##édi
akkoriban
tároló
##ucat
megkö
tudtuk
kérdéseket
ismételt
##magyar
##járat
pihent
##ender
átutal
pp
##lán
##tánc
##ené
beszélünk
irányába
up
##evői
##ányér
erotikus
##írók
kompr
ildikó
##vál
##ságos
##álására
##sk
életének
veh
mégpedig
akarják
remekül
jellemzően
tavasszal
galéria
egyidejűleg
tőlem
élettartam
felújított
##tv
##áh
##szön
mindenre
sütőben
evangélikus
népszerűs
##árty
turisták
hur
##ideg
egészségügy
##azs
haszon
csapadék
mértékű
heves
kérlek
mondták
##értékű
vérnyomás
##vélemény
teljesítményt
##olit
szitu
nélkülözhetetlen
##unt
szabályairól
összej
hagytak
##félék
gyorsabb
futball
dall
okok
bennünk
ajánlatkér
kupa
gasztronóm
soron
tapasztalt
őszinte
eleinte
##talanító
ins
kapcsolódik
iskolánk
támogatásával
tulajdonosa
##kon
megszak
szeretik
hatályba
bort
lí
alkalmazások
mezőgazdaság
bmw
jul
egyúttal
találja
vendéglátó
járni
feltételei
pesti
hozzászólás
jártam
gyanú
akkredit
tint
víg
lánya
atya
elbeszél
##ításáról
##hozzá
tevékenységét
eszközökkel
stílusú
szakértők
objekt
pajzs
doc
rud
találták
szekszárd
##essük
##érdem
ősszel
##mon
##ítsák
tepsi
albert
állunk
sokak
épülő
##atása
országot
kiterjeszt
bejegy
köze
videót
latin
nőt
##dődött
elmondja
##pálya
mszp
##unkkal
add
besor
kilátás
készíts
##forgalom
lennének
bon
##hab
##fü
##héj
jós
huny
##étert
##umok
magába
receptek
##hálózat
##irt
##ennyit
##orám
puh
megír
magyarság
adók
örv
domin
sió
csáb
szerezni
támogatások
hova
##ulin
minek
szóbeli
bük
fordítás
palot
##közlési
center
felker
korrup
sil
watt
neves
tisztáz
alapított
gyakorló
##nevelés
fedél
káposzt
immunrendszer
##ogyor
##ájáról
bizonyára
senkinek
tőlünk
arom
családja
##vizsgálat
nagyot
kamara
óvodai
##valók
##ásokról
tegye
##eljes
máshol
eredő
kerülni
sejtek
garázs
használatra
megeml
##hajtó
korrekt
legendás
úgyis
váltó
kinev
javaslatot
tetején
kisb
panel
club
eloszt
prog
megtörtén
nyelvtan
##ikkal
##hattam
nagyban
##ódtak
##ekvenci
sep
##áskor
helyek
túlságosan
megtervez
##ano
bemutatott
jegyzet
szerez
megmarad
tartalmát
költöz
erőforrás
bos
kiírás
megbízás
##terem
read
det
##hetőség
pam
##virág
##eker
elnéz
##imb
keresi
gyomor
##unka
örökké
ránt
##gomb
##enie
##szintes
erők
##gyűjtő
cas
szállít
pályára
arányban
sertés
faz
##ákról
múlik
ákos
meghatározása
##orok
kitör
törvények
##kereskedelmi
bőség
ukr
hagyta
gróf
literes
##növeked
kedvelt
egri
németországban
##etter
##edések
vereség
jazz
ró
##ökkel
##ótér
társul
##nb
megadása
##zetesen
kapcsolatosan
kamar
űrlap
##zem
##vezér
halász
példát
szenvedett
hívja
liberális
##ítésével
irat
trük
##ans
##őről
történetek
##épp
zajló
lip
power
látás
mezőny
professzor
cx
újból
angolul
##fik
##ezzen
##olom
galéri
elte
##hatom
margit
háza
készüléket
erkély
csemp
##doboz
hálás
vén
##sugár
maradjon
felkészült
letölthető
derék
lendület
számolt
keveset
érinti
##ffer
felsorolt
##abeli
okból
szabályokat
üzemanyag
indokolt
mindketten
foglalkoztat
portug
##amis
érezte
##imat
gyász
országokban
üld
##sony
illik
felszív
fájdalmas
törvényszék
visszatért
##hatta
vonatkozásában
lok
csig
lehetőleg
ukraj
##tlen
öv
agressz
lóg
##latot
percet
##ziós
intern
##tisztító
##ációban
órára
##szintű
megenged
##esztett
választható
rutin
nemz
jelennek
némely
ideiglenes
tét
##pit
alapos
huf
utak
hívják
festett
fol
hűvös
hajdú
megker
energetikai
szembes
kína
##asznált
heged
##ékkel
##hozni
tetejére
##ube
hekt
zsűri
fogalmazott
tudomásul
mov
##press
paraszt
szabályai
mellyel
változtatni
##kereső
helyeken
##oszló
partján
fogyasztás
legkev
muszáj
bil
barátom
felépítés
##eger
készség
##elését
##itárs
tervezet
valamikor
##vide
vöröshagy
felfelé
tartunk
tölti
legtöbbször
állítani
pip
korán
irodai
tápanyag
foc
elect
visegr
kompon
##őrös
##színház
megtalálni
parfüm
uralkodó
kétségbe
##etve
torta
operációs
pers
számban
eszközt
dinamikus
##fo
##kiadó
keresett
veget
##kult
számviteli
##isztikus
környezett
##menny
nevezte
rohan
sablon
##íj
napsüt
mélyebb
epizód
##sek
##használat
##ációval
londoni
uram
##hatás
##adását
városában
##őzött
kiker
üléséről
##szki
megnevezése
alelnök
legismertebb
##anda
##űrész
harry
lam
öz
spor
államokban
moder
derült
##eiből
##ízis
##ington
szerencsés
##csillap
wifi
auszt
##ias
##iak
alj
tisztaság
out
megism
##hatok
ismerik
lelkész
##pir
minim
eredményes
pontosabban
varr
turb
##ida
diz
gömb
##szerelő
##ítettem
tényezők
franciaország
##ultam
kompatib
töl
füzet
privát
nyelvet
mennyit
kinyit
mosolyog
gondosan
inger
egymásnak
vacsora
nyújtanak
bizottsága
##akrabban
kezeli
átad
területe
kicsik
alm
olyas
torn
kedvezményes
##polgármester
##oztak
##sző
várakoz
hagyott
galax
##ilatkoz
##tett
kezdeti
interaktív
##jaiban
utoljára
álmod
sót
szőke
##esleg
szorosan
##megye
braz
dániel
##kán
népesség
törvényes
gyártási
szövetségi
méretben
leggyakrabban
migráns
su
##hetek
szabolcs
használnak
földre
egyszerűs
##ásból
kistér
képviselők
##lista
szemüveg
lerak
##ruház
vonzó
konyhai
oxig
elkap
##ólap
##terh
megoldásokat
teáskanál
##felől
##alkalmaz
találunk
chip
fogadta
légkondicion
##anyelv
##szakasz
megöl
kimer
elmegy
farag
medit
fényképezőgép
stud
##ponttól
##szöv
##oztam
ritmus
bám
találhatók
meghosszabb
savany
##szél
visszasz
##ozással
útja
optimaliz
héttel
bérleti
határa
##hird
##szerkez
merc
##éses
győző
bep
##történeti
##nik
prov
előbbi
hallgatói
bre
anyagból
érkeztek
mosogató
vajd
amitől
koh
darabot
háztart
tehetséges
km
tudatosan
##képzési
testvére
ci
##szke
hazud
##íciók
szülés
filozófi
legyünk
##osa
ajtók
##apad
előrejel
kutyák
pisz
ellene
felm
felhasználásával
látszólag
keretek
oldalak
pannon
ketten
szilv
energiat
hasonlít
nb
temető
zsidók
győztes
kiált
ügyében
tapasztalattal
leggyakor
későbbiekben
életkor
közösségek
megtesz
vehető
##cikk
feltételeket
##nt
elcs
igények
nagyság
helyette
##iver
hangja
tax
bemutatni
elgondolkod
bb
gyűjtő
levegőt
tudást
középső
ülésén
und
##esítjük
##okr
##irányú
kénytelen
dvd
##ünkkel
részleg
jelentkezz
szövetsége
bik
##abútor
célkit
felmerülő
##lit
amellett
##telj
ereje
christ
##wood
##ítheti
##onald
##lic
beépítés
másként
zsírt
##ápia
##egészség
mandul
elkezdtem
sátor
##volt
##adatok
##rad
##ezred
előírások
gyermeket
mocs
folyos
vezetőség
pontjában
leggyakoribb
belát
melyen
rajtuk
fedezet
pedagógusok
méghozzá
látják
gro
elképesztő
önélet
##almasabb
##ogós
##éseinek
céllal
elhal
##umen
pri
többlet
percre
kényelmesen
##eje
stad
vasal
összetétel
bomb
den
vártam
azonosítása
durva
társulat
botrány
fodr
##ésről
mentem
szórakozás
megelőzés
##összeg
##ezéssel
kav
túli
tejföl
##ken
##etnek
komfort
##assák
##úrás
függöny
##ándok
véleményem
elterjedt
továbbképzés
igényt
szempontok
készt
szobor
##leves
##pest
##ítottuk
export
usz
tudjon
szerencsétlen
zenét
domain
kerüljön
lök
részeként
bosz
pc
leendő
megnézni
hangulatot
nyomja
fenyeget
repülőgép
böngésző
tucat
jobbra
alkalmazásával
sü
készítette
kongr
tevékenyked
##zatos
##nyira
szakképzés
ajánlatot
direkt
asztali
cd
lejárt
##ítésének
##acsint
beállítások
ökol
##ártya
edit
helyzete
##hús
gyilkosság
esélye
középkori
cal
szir
mellk
erőfesz
ram
tedd
merül
vasárnapi
##betét
panorám
hibák
madrid
pomp
##szerviz
hangulatú
szerepelnek
kihívás
ves
##sort
ukrán
építőipari
tisztség
csokoládé
hany
alátám
megkül
oldali
baja
##sch
##érés
##éka
építeni
akarjuk
órával
segítik
vert
##sm
gyereket
házig
bizonyult
dicsőség
barátságos
petrezs
találkoztam
##ital
eleme
##ákhoz
##ükön
sorra
fát
##vai
##zanak
állag
feje
ajánlás
beill
folytatódik
##kapitány
kán
zajlott
prezent
##ülését
bűnös
cikkek
enyhe
főzzük
zongor
vezetésével
hangszór
korlátlan
csongrád
szakszervezet
hallani
mani
##ste
##gyógyászati
##gyos
##ilabda
riasztó
korszerűs
##edve
##állapot
semmiféle
gyűjtött
hétvégi
##ottunk
korona
kapcsolattart
feltétele
kevesebbet
hetente
##aikat
tagozat
gyártók
kanad
##ímer
rendszerint
járási
##csökkent
##íva
kerítés
kalóri
visszam
##ozására
paprika
válaszol
robert
dizáj
vagytok
ellátása
cap
piacra
produc
diszn
kaj
közérdek
maradnak
futás
belépő
##iót
használunk
szállást
aggód
##niuk
evol
sec
##ázza
valamivel
maszk
tipikus
menyasszony
köré
hangot
céges
hen
gondolta
ellenzéki
napfény
bérbe
gyarap
hell
emel
brut
##uzz
##ezünk
ellenében
fran
tájékozód
##ostor
azokra
belőlük
elr
közelm
célt
##érte
optikai
ikon
##ukkan
english
félig
terjedő
foglalkoztatási
bat
cucc
párkapcsol
szomszédos
alvás
felülvizsgálat
##ké
##ozdul
kezelést
étkezési
menetrend
##oy
főosztály
gyakorolt
megújuló
közzétett
muzs
##ágaz
politik
követelmények
vezeti
házat
tekintetben
kirak
hármas
jos
##izáló
elvileg
##ájából
vezérlő
##csapat
##dr
kevesen
jegyében
autóbusz
##száma
sziasztok
ecs
##adására
ütkö
mágneses
##dtek
##éki
csakhogy
fillér
##eto
szend
ellenség
egészében
szervezésében
helyszínek
line
aznap
##olását
miről
haladó
szeretni
szülői
készülékek
##álást
vízbe
büszke
##ítőt
régebbi
gyöngyös
közelmúlt
tuti
nővér
másokat
##ábban
választotta
szimp
eljutt
dani
alkalmi
fam
iphone
bp
tőzs
##gyár
oldala
megnyilván
polgármestere
patak
smart
##kiv
kapcsolata
haladék
teljesíteni
vállalt
földrajzi
változást
##kov
##áne
##ávú
akvárium
bejut
tanítás
##koll
##ahagy
miniszteri
##ira
##oper
keresés
ajánlani
##ászon
készítettem
##ory
felmond
pályázó
megtekintése
közzététel
segíthet
palack
ázsiai
hírt
##eljár
kudarc
tartalmaznak
javasl
##ilap
fogalma
##őrinc
sportág
##ezheti
##őrend
döntések
mikulás
művészi
##veszély
megszólal
temat
habár
##opt
ort
##omon
##rix
türelm
szakterület
sokszínű
##hatatlanul
szolgáltatók
tartalmi
programban
problémákat
vezérlés
szabályzata
##vevő
érezzük
eről
banki
natúr
bolygó
állítás
munkatársa
gur
íze
működnek
lent
megvalósítása
tul
##kelt
##enünk
szakos
pon
##ou
véleményét
##ph
elsőre
sütik
őriz
erkölcs
kérdőív
##bon
részek
hangzik
vádlott
akciók
##ókban
alapszabály
bárány
sarok
tábláz
##zene
##kód
##álog
beoszt
gyermeke
roham
##ria
alapfokú
halt
törekv
juhász
betekint
##ozásra
opel
megrendezett
logisztikai
felmerült
öngy
törvényi
termékeink
sofőr
##eksz
megte
##réteg
##kelő
bőrre
tas
értékeléssel
##bány
world
belesz
azokkal
férje
lépést
fiatalabb
mediter
vinni
wal
nagykövet
álltak
##asztja
plaszt
felújítása
vezetők
class
ök
váltak
pontok
megkér
##ruh
értelem
maradni
ételt
##entin
vállalja
hívta
modellek
##eth
illő
tölteni
bejelentés
dicsér
lőtt
##úak
feltám
levon
tervező
károk
százalékát
rendezvényen
eff
köre
bizonyítja
filmben
allergiás
ökológ
hírlevél
felkelt
db
##lél
##rek
##fül
cserébe
##alizál
gyógyító
ünnepség
menedzsment
élünk
menedék
központja
fizetett
szavakat
ív
foglalkozás
végezte
földet
nemzedék
##rob
részének
nyugalom
üzemmód
##hassa
##pedagóg
cselekv
cel
wc
##gá
##önk
##ezzék
vélemények
ügyfélszolgálat
pók
nyál
áruk
témát
##work
rendeltetés
jelek
kihúz
##esés
##tetés
gondolok
hétig
konkrétan
##ablak
##ködés
időtartama
meghirdetett
fas
##kes
évtizedek
meghoz
megmut
tenisz
hám
hivatásos
házigazd
elvált
fogyasztása
##rok
##amon
menjen
innovációs
##akép
##odva
sütjük
norvég
címer
ász
##egóri
fogalom
találsz
lenyűgöző
##atokban
tervezési
divatos
zab
##egyes
tejet
##cserél
univerzális
##zöld
mindjárt
rendelő
legjelent
gyártott
kimenet
részesül
sup
tányér
torna
##kutatás
előtér
hatodik
válogatás
igazságügyi
kisgyermek
kongressz
áf
kedvéért
érzed
cukorral
more
zsuzsa
##bek
megem
köszi
##hatóak
##ipp
előállítás
keresse
vető
állati
telef
magyarázat
ismerjük
megrendelt
intézkedés
szörnyű
##mirigy
##helye
##act
kolozsvári
szélén
jenő
##edést
szenzor
dj
ezred
hangulatos
james
újjá
##miklós
##fejlesztő
mechanizmus
bélyeg
##gót
##arok
##korlát
##talanság
##auna
##etlenség
anyanyelv
karc
burgony
gig
pof
szerény
lakásban
motívum
##kanizs
##ellenőr
megérkezett
portugál
hogyha
programokat
##vonalak
náluk
állást
##szövetség
eld
##állom
may
papp
aranyos
szivár
illető
spór
árát
dolga
slág
##aihoz
trón
küzdelem
kívülről
tananyag
kérdésekre
szolgálati
követte
menn
autóval
##örténeti
ránctalanító
##cid
váratlan
forgatás
folyóirat
evangélium
azonosítás
ételeket
##log
szükséglet
hetven
genetikai
maszt
##váz
##ítenek
elmes
innováció
bírt
mogyor
ru
##amar
##rejt
művelt
kiemelten
kidolgozott
eper
##esk
##ógrád
iskolába
pen
##fin
##orog
##tere
beszámol
salát
##oppant
sülly
értünk
zsíros
michael
hosszút
##ötvös
##afut
lebont
paul
halvány
##keret
magyarországra
apost
lennék
alexand
munkahelyi
##egő
##hetőleg
közoktatás
bebizony
néni
szíve
##iárd
##fontos
érdekesség
fig
reméljük
belev
##esik
esztétikai
hajlék
mam
tus
bizalom
elemzése
javasoljuk
magamnak
ef
adatszolgáltatás
cikket
tűnő
##termék
eötvös
csarnok
könyves
tartalmú
hozzáférhető
##errel
időm
címzett
félelmet
gyógynövény
szöveget
gyógyszert
##cent
##emnek
szerte
##odást
értesítő
bács
selyem
felhalm
olaszország
dolgozunk
elkészítése
sze
##ágott
##lását
##agad
szakszerű
erősíti
unalmas
stratégi
benyújtott
örvend
##edtem
##ológiát
pik
mindenek
jelentkezés
világítás
megyünk
ingatlanok
illegális
##együtt
jelentenek
főnök
feltüntetett
városok
balogh
nyugat
helyszíni
zarándok
##egerszeg
mediterrán
##oltunk
neur
jegyzék
beállítása
szigorúan
vetett
komm
csatlakozott
##edése
##onda
##lenül
ponton
zsuzsanna
lomb
nyomtatott
##készlet
védi
phil
##jem
##rabban
adalék
##ezések
meglátt
róluk
gyümölcsök
##ókon
irányt
##telenség
finoman
kiskun
##vacs
ellenkező
szóban
vizsgált
##szülött
kid
bárhol
földszint
stadion
premi
javasolja
ennyit
játékban
##ségeit
projektek
gitár
##sok
##iam
##ességének
hónappal
láthatjuk
mondható
mentek
csodálkoz
parancsnok
zal
##kád
folyós
##rendelet
formák
nyíló
##foglalkoz
##ülettel
számító
##pontos
##ystem
##car
jelmez
kapcsolód
##niük
##ölő
venn
köly
olv
##ókra
környező
hónapig
antib
legjelentősebb
with
lépések
##üzlet
##endők
##kezési
várakozás
szóviv
könyvtári
imádom
nagyközség
fogod
irányban
##hossz
gépkocsi
thai
##tomaj
fára
tend
##iot
tanulási
tölgy
##cd
kimutat
lényegesen
színésznő
war
szerelt
folyamatot
##lést
##érz
főigazgató
##que
##lemény
##rem
joggal
oldalát
sürgős
##fontosságú
kúr
képviselőtestület
felment
helyt
cy
##ézis
##ostól
érintettek
nógrád
észrevétel
balatoni
##presszió
címét
barb
gul
elit
##hattunk
módszert
ablakok
sort
##állat
fehérje
folytatása
##tk
hónapok
grand
serpeny
demokrácia
kh
lába
##ósz
működésének
but
boh
##kir
##kezelési
megtenni
szocialista
távirány
glut
időpontban
ezúton
hangos
látták
küldetés
hivatkozva
színvonalas
gd
tun
megmér
évszak
termés
ahova
##házy
vágó
esztendő
tanulói
hungária
tőke
##dését
festmény
eljött
##yán
leszünk
##engedett
lakott
anyaga
hr
##uláció
legegy
másikat
leáll
##imet
vok
##kab
legény
felkészülés
bibli
##szegény
fir
##ődik
##ulát
##ckrém
csapatot
##osabban
maximálisan
rezg
##szívó
haladéktalanul
értékét
##menedzs
ura
##űs
##ázta
barátja
meghaladó
kerámia
##pontja
technológiák
üzenetet
izraeli
##ouse
megérdem
felte
##hetem
##elésre
görcs
##piaci
törö
##zsa
akárcsak
elfogadni
becsület
lapot
mete
##olásra
##asa
kerékpáros
karbantartás
##ográfiai
írok
##agram
parti
tojást
háttérben
páratlan
megvál
elhanyag
fennálló
művek
egyezmény
közeg
mk
értékelése
##öntjük
##felhasznál
barátok
kiadások
kolb
##azonosító
átmenet
játszanak
##arány
életük
ajtót
##örténet
##célú
##ánus
visel
maradtak
lif
margar
olvasom
eljárásban
fogyasztók
melléklete
szerkesztő
zalaegerszeg
las
származású
szakképzési
##láv
##gott
bizottsági
önmagát
imádság
összekapcsol
holt
vii
amennyire
szappan
martin
pult
##álási
jutni
kompakt
##szövetkezet
burkolat
hozzászólások
antioxid
főzés
##szag
##vánnyal
könyvben
találkozik
találkozás
bevándorl
##hír
##alja
opció
##hesse
sy
fahéj
##olással
##itását
##szeret
stát
krisztina
világhír
járulék
big
felhasználás
ekkora
tájékoztatja
biztosítunk
vezérigazgató
##essel
franc
diab
egyenl
gondolni
egyszeri
##jaival
gumiab
##számok
választások
fehérnemű
##lák
##ualitás
gabri
ilyesmi
költészet
interj
tekercs
hiányosság
ivó
ix
adatt
fogadó
támaszkod
##újváros
eljárási
szopás
kelljen
balra
metró
olíva
univers
pillanatra
brüsszel
buddh
bí
##fenn
##adások
köszönet
pláne
kínálunk
létrehozása
##umi
alapok
##ványok
védjegy
átlátszó
tapint
románia
lejt
fejt
megszűnt
lej
próf
##vezeték
coach
kémény
tob
##váron
elmarad
tisztítás
üzembe
##főnök
alkalmasak
szerződésben
fordulat
öregedés
legközelebbi
juni
állította
teszem
összetevő
skál
##ele
semmik
##din
##olat
ugyanazon
kezdtek
profit
##kedés
##atosság
világa
ezekből
helyzetbe
fokhagyma
##alis
##elle
korabeli
##öltő
##őképpen
city
kecskeméti
búcsúz
##our
##eki
##kezik
hallat
##változás
siófok
hév
##közleked
harang
igénye
pályafut
folytatni
tévé
gyurcs
irt
kímél
##hettem
élelmiszerek
pór
hort
kertész
##szentmiklós
kacs
előrel
media
megéri
##ömeg
minősége
felsőfokú
rajtam
okozza
terheli
kombinált
mur
iso
##eph
szívem
##rog
félidő
vizsgálatot
hetedik
futt
fedett
##oo
műhold
gépi
holott
##gazdag
##rács
részvételi
megcsin
bácsi
##fűt
módszertani
élőben
kiválasztása
nyaralás
analóg
ventil
radik
tox
##auz
számolni
általi
zenész
tájékoztatjuk
badacsonytomaj
birod
lád
rol
##ath
##ady
okmány
##ésétől
bukkan
##egyenlőség
##aw
##etti
teljesítményű
dráma
##alatt
szia
kiegyenl
##bbal
adatfeldolg
angli
kollektív
kipróbál
szakközépiskola
gaz
xi
##őrt
##száll
felsőoktatás
láthatóan
##hajó
helyreáll
látszott
tűzoltó
##hőmérséklet
##ésem
##áltunk
bizonnyal
##számot
versenyzők
##csökken
határozottan
szerelő
mindenben
pénzügy
leggyors
##kedvelt
##halom
fiam
struktúr
felidéz
lead
munkával
forduljon
engedélyt
pihenő
##fogyasztás
eközben
##világot
következménye
krónikus
##nökök
forin
##sérült
nehézség
ruhák
cop
##eddig
mindenütt
megfont
##gyűjtemény
##ésekre
sütés
kérdez
vác
oktat
értékesítési
kali
egyenlet
egyenként
##ésszel
tudtunk
##éveszt
stílusban
riz
##ml
##így
nézők
ügyek
görg
##iens
emberekkel
életed
indulás
levelek
levélben
legegyszerűbb
érvel
szemet
erőteljes
séta
sóz
igenis
birtokában
meghaladja
szívvel
vetélked
tartalommal
járművek
##xxx
póló
##énes
##abd
nagykanizs
jelenet
szülei
biztosítanak
őrült
szégyen
hajdúsz
kontinens
kod
felvilág
nyereség
riaszt
csirke
bevet
egészségi
forrása
group
ty
zászló
##tatták
##agos
műemlék
##dést
célból
letart
tizenöt
szlovén
##oe
##ient
csöv
ellenben
##mennyiség
máskor
részre
sorok
fizetendő
ruhát
##erre
kezdi
meghatározza
rúg
##úp
##kország
essz
hegyi
va
##völgy
felhő
##ülék
##ute
##attunk
iparág
lássuk
##fájás
íny
##uljon
elérése
##harmad
##ikusok
viselő
beszerzése
##sw
##berény
kicser
##eznie
elveszett
munkanapon
gyerekkor
képernyő
bejárat
ultrahang
los
beind
riv
##tassa
készítő
##acsoport
##eges
##elemek
virágok
fúj
szerelmi
gyakorol
asszisztens
bugy
fúr
szök
##ájt
franci
alkotott
csináltam
elzár
##tté
##csont
tanári
peri
idejét
aszfal
magatartás
közérdekű
vák
##üknek
##iszem
##ubil
krisztián
bejegyzéshez
##bemutató
körút
családban
típusa
palacsint
felületen
olajat
##hitel
gyártása
##elekmények
sose
nm
##itz
##unkba
visszafog
you
##adnak
irg
##ally
adri
##ektus
##hallgató
##hették
indít
hitelt
fellebb
##ózsa
erejét
színpadon
kijav
érzése
kommunista
tabletta
tisztelettel
rászor
punci
cast
építése
##rich
##anács
##éna
##eltetés
okozó
sárgar
korlátozás
herm
lehetünk
##ossági
nyilatkozta
pix
elterjed
mérnöki
reszelt
kecs
##ruha
jeles
##helyiség
tapasztalata
letartóz
##ítsék
##földön
##ameg
számának
napjától
hozták
főt
vendégeink
##zati
##ebbek
mentünk
órai
matrac
képzések
##ativitás
törökország
dub
mess
tanítási
kérésére
##anyi
enyém
nyolcvan
iszony
##ügyminisztérium
gyűr
gyilkos
antioxidáns
##osított
gyém
##szeres
történelm
gyakrabban
időpontja
blueto
word
csem
##cher
##oszlop
mutatni
##hetetlenül
előzetesen
fokos
tágas
titokzatos
koszt
övezet
néptánc
végzettség
igyekszünk
szénhidrát
##inap
részei
versenykép
lapok
épületet
évekig
##adásával
tagjainak
párizsi
down
##eles
hidratáló
választja
találkozott
forgalmazó
felfüggeszt
felkeres
kihely
##lór
jutottak
medve
eseményeket
indítványozó
összegyűjtött
mál
pecs
##latos
deák
##helyet
németek
kisebbségi
roppant
##ibás
minőségben
stim
lila
##áron
amennyit
erot
szabályozó
dekoráció
beavatkozás
identitás
önéletrajz
nuk
nyal
állított
témája
elteltével
##etjük
közreműködésével
sokoldalú
##ünnep
fertőtlen
ragyog
nyitó
bejelentette
##eimet
megőriz
megalapozott
kabát
tatab
##ero
kertben
összehang
színvonalú
bocsán
dús
pán
##rikus
nevezik
sorozatot
kandal
hozzáférés
nic
##elhár
mióta
##oboszló
zsir
##iti
##asy
viii
keskeny
táska
wash
megálló
##entől
arckrém
megtám
bluetooth
javítja
tanácsot
benneteket
fájdalmat
##elések
segítők
lehetőségei
félreért
kompatibilis
##györgy
időz
megdöbb
##fus
egységek
adhat
közöttük
képvisel
képviselt
oxigén
ké
fényt
békéscsab
döbb
beszélnek
legtöbben
kezdetét
trans
kezébe
folyékony
evolú
##tetni
##elemmel
régebben
##ismereti
illata
kísérleti
##ográfia
használatos
mozd
kozmetikai
##ape
érő
újságíró
díz
mti
##kéz
##itas
növekszik
anális
##iness
##ile
lépéseket
telepítés
tanárok
hajdúszoboszló
jubil
lor
infrastruktúra
idegrendszer
büntetés
tiszteletben
barátnőm
szerzők
hetes
fordítva
visszatérő
##avezető
zász
szervezetben
##gatja
##levelet
titka
hibátlan
xix
##nye
##ulási
segíts
viszi
derek
szabadságharc
his
##olgár
beköt
elfogadta
készítünk
belépés
lőrinc
##ököt
tartva
leszel
lakók
bring
mosógép
dezső
##rög
szerelvény
dán
##ons
##andós
vállalkozói
mehet
box
##álását
sütőt
szakképzett
szennyeződés
spirituális
gyep
##avált
##jelölt
##falak
szintje
poli
munkavállalók
nak
##hám
felder
##azar
képező
térben
egymill
vendégeket
party
bert
##áru
##özni
igazolás
szentend
##nás
##aza
válhat
ellenőrző
##vizsga
elkezdett
szintre
támadó
telekom
kaphat
főhős
borító
ajánlatok
nok
lex
márpedig
hoztak
elhár
megoldása
##hessenek
világbajnokság
ökológiai
bence
oc
óce
##ttest
kövér
tervezése
##könyve
ügyészség
ránéz
felolvas
##iac
##éma
autonóm
##ká
##hu
##aras
##over
abbahagy
zenés
vásárlók
nyilvántartásba
forgatókönyv
eredményez
felmeleg
hasznosítás
feküd
tenyészt
##ena
vezethet
szokások
katonák
retteg
##ray
nagyvár
érkeznek
alábbiak
mennyisége
növelése
jelentőségű
lapja
international
##ima
módszerrel
hatékonyság
memória
##lav
kígy
szúny
##ozíció
eszébe
elfogadható
megnyom
##gyógyász
higién
búj
land
##kodik
cserép
xxi
##siker
vilm
öbl
folytatja
csoki
védelméről
kabin
megszór
elvégzése
##otthon
olvashat
mitől
mom
##een
terhes
##ozd
újat
érzik
szükséged
##alizáció
##ier
##ődött
magához
elérhetővé
felvenni
ügyvédi
workshop
##ájához
tolm
##árak
kezdték
ausztri
gyull
##állyal
elhíz
lányt
környéken
teheti
ügyel
barom
fekv
##iné
nagyb
enter
termő
összetevők
hardver
eljön
lehetőséggel
##értékben
minőséget
görd
szombati
éltek
melyre
gólt
fantázi
##olunk
tartalmak
kurzus
##hű
##ódus
ca
##edtek
elvet
##eller
sorozatban
ráv
áraján
ausztria
kicsiny
fólia
felgyors
##teremt
hatékonyabb
human
lezárt
gén
gyere
mentális
biztosítják
apróra
előnyös
ass
##énak
##ulva
lefoglal
napközben
munkálatok
hétf
jövedelm
passzív
##way
##almának
láthatatlan
olvasmány
kamion
elképzelhető
legyek
szilveszt
kinyom
##aidat
##djön
##ódása
napokon
adottság
alábbiakban
sújt
mindenkori
jutnak
beleegy
csipet
##viii
##ölet
hagymát
ténylegesen
##könyvet
sas
feléb
támogatására
mutatnak
nőnek
kereskedő
beszélgettünk
##szenny
##értem
képe
méretek
zárva
bútorok
##dsz
##ügynök
alakja
szexshop
ifjúság
kilencven
bk
##entúl
bejárati
map
keze
##úzió
közre
##utó
havas
behat
##kedvez
személyt
javára
##mix
munkavállaló
green
langyos
pék
szu
##élmény
##engés
##díjat
régióban
terápia
anno
##vics
##uld
hossza
##azmus
próz
mellesleg
hosszas
tündér
##had
jogerős
vezetése
refl
valósul
vásárlási
békéscsaba
##embert
##odtak
tárolás
novell
pattan
##lati
merész
aggod
bay
vs
##massz
adóhatóság
hálózatok
gyémánt
munkára
írásos
##típus
##enem
##umb
mindennek
használták
mézes
viseli
rákos
muszlim
##vezetők
kezdőlap
rendelkezései
tekintet
vállalkozási
küszöb
paraz
gárd
depresszió
főút
kris
##lapok
szolid
megközelíthető
elérte
biblia
időközben
világra
##esebbé
vehet
reggelt
limit
gyurcsány
élől
##kodott
üzemi
cir
##áim
szerződések
csomagot
sis
elrejt
##kös
valamiféle
állapotát
társasjáték
keretein
móri
##uter
##kapu
hová
orig
baranya
megérteni
kovácsolt
homlokzat
szúr
##itási
építészet
hibrid
adapter
dög
##cl
##edési
végét
##ünt
területére
neten
meteor
hozam
hónapon
légkör
hormon
hár
##ságában
##iratkoz
hadd
küzdő
vitte
népek
exp
megszűnik
nukle
##ösz
impr
lépni
sur
tre
##öly
romániai
boltok
aktivitás
hülye
##okkol
hatásos
falat
töltötte
tanúsítvány
liga
okokból
##adarab
csekély
másoknak
testre
##rap
akadt
rendszerrel
természetben
harmóni
##léc
##óan
##ödött
letiszt
terhelés
rendőrkapitány
esélyegyenlőség
laza
védekezés
kisfiú
pásztor
arca
##osságot
valamiért
tegyen
forinttal
alpolgármester
szerezte
haris
falusi
arcát
##enzió
funkcion
europe
##gimnázium
##even
kérelmet
kamasz
épületben
esztend
fűtési
##rendű
vonalak
amerikában
munkavédelmi
maguknak
jelezte
választották
lehúz
határozata
fat
##anul
anyám
##egl
##észe
csirkem
dallam
bizonyítvány
fideszes
közszolgálati
##usson
csinos
köztud
manag
funkcionális
bemutatja
rendelhető
szegély
technológiával
##tetett
jogorvos
történhet
lakót
##ációkat
figyelmen
jelentkezett
elkészített
válasszon
##vesztés
nyilvánvalóan
premier
##ikációs
megadni
##cker
csaptelep
##arján
##edes
##iók
termál
hagyd
mutatták
relev
bekövetkezett
jóga
apát
szilágyi
megköszön
megóv
##ámogatás
mics
gyakoriság
kegyetlen
lengyelország
##ályos
igényeinek
##ecz
elemeket
csupa
fura
tini
##vaj
előmeleg
célba
helyesen
major
gip
##erdő
##edző
bord
fakadó
##vező
érkezés
rekonstr
kísérő
előadása
feldolgozása
##sztár
munkába
szervezete
##mérnöki
##számra
bekezdésben
kölcsönös
zo
várta
átél
tárolt
##nevelési
műveletek
nemrégiben
legrosszabb
dém
szup
##íthatjuk
mélység
##vitt
serk
válasszuk
junior
termeszt
merre
megvalósítani
##uzsál
lázár
garantáltan
marosvásár
pamut
##egészségügyi
ivóvíz
lévén
##yén
##itól
piramis
forrásból
édesanyja
feszt
mozgó
éttermek
világhírű
jon
##egyház
##féra
elvégezni
aludni
megoldható
igyekszem
emelkedik
##ásig
##arat
nyir
adjunk
##ásától
app
harmon
kártér
szimpatikus
prés
felhasznált
egyebek
rub
##ase
hozatal
##indulatú
##csökkentő
rot
##arest
##ülhet
beír
utánpótlás
egyesek
vajat
benyom
puszta
helik
##érzés
kezdete
tulajdonában
benedek
implant
ajánlatkérő
petrezselyem
##fikus
jelentek
színt
központjában
pszichológus
kimutatás
ráb
kontén
elképzelni
electron
washington
##rogén
##óna
##sziv
tartozott
ensz
születik
csokor
jubileum
mók
leszám
megszáll
dokumentáció
veszprémi
státusz
sá
##alg
előker
általam
jártak
elmesél
kenő
viselt
##rica
útját
testet
érdeklődőket
szoptatás
kirándulás
szimbólum
##nyilván
##ázik
##enye
##landi
félelm
mikro
##ulajdonos
erika
##asztani
gyógyszertár
vizsgálati
vilmos
##pill
##ew
feltételeit
benned
iván
##apor
képezi
##képek
foglalkozott
tárgya
éghaj
cre
ossz
állapotú
rögzítő
sztori
##lék
##áradt
megbecs
irigy
színp
képzőművészeti
##almatlan
##ítésében
jelentkezni
##intézmény
grafikus
##jeit
sony
megép
gépet
fotózás
kettőt
elektronikai
fegyveres
főiskolai
kg
##kil
##ali
##ökben
ugyanígy
szükségük
##hassanak
listája
##pénztár
végi
pártok
illatos
délutáni
bartók
mang
kikép
messzi
reményked
ügynökség
##nyújtás
vul
##kés
##ward
ágazat
keserű
látunk
ellenálló
környezetvédelem
helyzetű
találkozunk
angl
regisztrációs
megújult
kef
xl
##bont
felr
dolgozat
léteznek
befejező
színpadra
részvénytársaság
meggyőződés
kukoric
pezsgő
##vén
##hasz
kétféle
eredményeit
ilyenek
eleven
patt
##éi
csász
temet
gödöl
kiür
közgyű
##ázási
##örs
##óti
megválasz
miben
fejem
halak
auto
különbséget
bukarest
##estek
amelyből
törleszt
egyeztetés
megal
##iták
kifoly
##ületek
##ugor
közelben
bírói
kalocs
legfelső
dam
zomb
differ
vegyük
akarod
cigar
szank
járat
szabályozási
peter
tiszteletére
##történet
##ressz
ady
hozzád
segítségét
kupon
pihenés
plakát
legrég
jelz
nevén
kezdjük
járunk
felhasználható
biztonságban
kínált
##alapú
kialakulásának
szók
##ásokban
életbe
hazat
eléri
nyilvántartási
kórházba
lcd
##fele
tásk
katasztrófavédelmi
##negyed
##öntet
cikkben
bolyg
##ítem
##vények
mostantól
játékkal
berlin
##változ
madarak
amelyekkel
drámai
felülvizsgál
open
tudna
bizalommal
termel
módját
teljesített
szintjén
elmély
apám
környezetet
ellentétes
nyereményjáték
zok
##eden
pszichiát
napirendi
ruházat
hm
elal
emelte
mégiscsak
hordozható
furcs
##sejt
##ucs
józan
lakcím
diós
reális
kanap
híján
ht
##ánsz
számítani
idény
témák
ellenőrzési
kiszáll
üdvözöl
##akövet
alján
díjaz
máig
jogh
##problém
ismerte
névre
aktívan
gps
##ötték
elmúl
barokk
hatások
süti
##ffy
##agen
közlés
gondozás
kavics
mé
wik
##vörös
##kont
##árad
élek
##ételek
városrész
keresik
elősegíti
##álók
##ubor
mozgást
folytatta
szakközépiskol
inz
adjon
eljáró
búvár
dra
system
súlyosan
##ísér
##ényes
ragasztó
tudósok
##ásakor
##eve
játszótér
ajándékoz
##uum
##iális
tárlat
látod
kínában
fizika
csökkenteni
szolgálatot
fejlődését
business
vedd
##büntet
##ege
órában
tour
titkár
office
matematikai
one
xiii
##csöv
igazolt
kapcsoló
meghibás
másikra
protok
kapaszkod
##enyészt
államház
torz
pszichológiai
szerkesztőség
bevezetése
befejezés
végzik
##értékelés
garanciát
##jáig
tagoz
formáját
szobás
##adal
##ellem
##isztoly
amióta
paran
fotót
jönni
gb
hallás
##kerek
művelet
fajok
komprom
savanyú
jele
##őrző
kivizsg
szívében
küldeni
környéke
##modern
veletek
csöp
ottani
##ions
##hib
lépcs
fokozza
shop
funkciót
##autók
tartósan
kedvezményezett
homokos
##tudomány
felcs
adok
csökkentése
szimpl
##szervezés
##uch
kiment
másnak
óvatos
legtöbbet
##falva
perccel
apróság
cat
hel
kati
szur
érteni
fejér
mérési
keresnek
büntetőeljár
afrikai
##energia
glutén
##ovány
szakosztály
baloldali
kritérium
multim
húsvéti
##ítendő
##ozót
##áltatás
jogsért
történtek
olívaolaj
helyezzük
##eszes
ho
sci
gondolják
javítani
boríték
telefonos
színházban
kategóriába
nagyméretű
vezetni
kihird
sáros
újságír
háborús
bevásárló
hajléktalan
##kock
figyelembevétel
mikrofon
rav
ze
enz
igaza
szólva
maradvány
válaszolt
krisztin
robbant
csab
erg
végleg
alkalmazzák
##sejtek
univerzum
##iotikum
##fém
elszak
köl
látó
otthonában
##záró
ring
vevők
##árda
##esemény
##ésbe
team
belvárosi
miatti
keressen
##eddel
dohányzás
lév
##uge
##gatta
futott
bankok
időszakra
kerületben
szakképző
gazdálkodási
camp
elnyom
##ölgyek
ahely
##wa
##ításban
##kozott
##ességű
testsúly
zsírég
hp
##eját
##ógomb
##üty
irányadó
kötelezettsége
takarékszövetkezet
rejlik
közelmúltban
##gótarján
lil
üv
állítják
próbált
ötletek
felügyeleti
terápiás
pelen
##áva
##eső
haver
helyébe
##zetet
váró
mesék
fogadni
gazdálkodó
##őjű
gödöllő
##artalmú
##aber
##rendszerek
kórházban
kombinál
##funk
##oton
##chen
ismeretter
csapatunk
orgazmus
adapt
ju
##jává
##ítószer
bern
partnereink
##ien
##eleg
köb
alatta
amelyekben
formát
megszerzett
jeruzsál
kac
##oci
##hatták
legerős
magáról
érti
##kodó
oldalára
kialakítani
etn
ahelyett
hint
##osp
ügylet
organ
kij
árus
tekinti
valóságos
előfizetői
##adon
programmal
cikke
kazán
előfizető
maszturb
szauna
nyomozó
szerzője
faluban
master
asp
bogy
jogosítvány
##portál
évtizedes
elosz
nevezték
ugyanezt
előttünk
gyengébb
intézkedéseket
salgótarján
kozm
felbukkan
jakab
tervet
álljon
##ózni
engedi
##lagos
jöjjön
manip
##erd
kimagas
tanára
##jegyző
próbálják
létrehozni
megnyitó
igazolvány
micsoda
lis
leck
főző
személygép
##áncél
elemi
írták
táncos
kiinduló
ax
behozatal
estét
munkaviszony
helyreállítás
báty
képzelni
##urált
##enna
megállapított
caf
##ákból
előttem
elvon
szövegek
szezonban
gyerty
legkor
köthető
megállapítása
vágyik
népszavaz
balatonfür
reprezent
##fed
##erto
évről
ellenfél
##ília
kórus
bulg
suz
nevez
zsel
területre
bevételek
jaj
próba
képz
formájú
tartalmazzák
amerika
fitness
##raul
hűtőszekrény
##apcs
##odása
tartsa
tekinteni
osztályos
képzelet
telefonszámon
##isztika
címkék
hálószob
döntöttem
nukleáris
csónak
barcel
szólnak
##jaira
##jétek
előforduló
vikt
rabszolg
fm
fogadott
keresek
nézet
##noki
szubj
zseniális
xii
##eon
##hit
##agon
kivág
elfoglalt
influ
széri
##evőket
##örő
aktivál
befogadó
testt
##őrök
vegyi
fejlődése
nyílászáró
selejt
tárhely
nyomozás
##ennyire
##ultabb
golf
csor
sorsa
szöveges
##kötő
növekedése
összekeverjük
netán
ártatlan
sikertelen
cook
pörg
##szót
főtt
építkez
fesztiválon
mexik
##akez
szakdolg
vállalni
aranyér
örökre
##hullám
sum
eséllyel
marha
segítünk
krim
kitér
erőd
láttuk
kizárólagos
tömegközleked
számlát
ferr
rengeteget
##egyver
jelenthet
megkapta
szombathely
megakadályozza
dog
##cc
egyesülete
vinc
járás
##usztikus
trad
##ezzünk
##áival
mindazon
forral
nevezzük
króm
##ápiás
verzi
ajándékot
tartózkodási
tetejét
##enék
adtam
jelentő
##ossággal
érvényesítés
kötelezettségek
vagyoni
holly
vizsgálja
tanácskoz
párhuzamos
megállapodást
rtl
fész
ov
tép
elef
##elésére
##jüket
mérföld
gyermekkor
függő
porcukor
laboratóriumi
processzor
képessége
érdemi
fedélzet
koleszter
valóságban
audit
rok
##épa
him
elmar
változásokat
legmegfel
aszfalt
halmaz
kata
cson
veszem
paprik
gumiabroncs
rog
emberrel
világába
bekül
építkezés
szavazás
kórházi
gm
megengedett
##entem
időponttól
stre
friz
fenntartja
##arendszer
vin
olvasók
kiló
meddig
biztosíték
milliós
dizájn
peng
takt
##olások
##ánkban
kialakulását
papírt
rap
márta
prág
részleteket
elérhetősége
kortól
alag
hirdetések
molekul
érdekli
karik
összecsap
rendje
##émia
végzés
vizelet
##biztos
ápoló
kesztyű
##együttes
adv
állhat
váratlanul
amibe
törvényt
biológia
galamb
észt
közművel
életemben
könyveket
szülinap
értekez
előtérbe
sul
##illet
érsek
kifejt
##irányítási
függvényében
##őrendszer
##com
traktor
##uknak
napelem
hatalm
akikkel
##hassák
áramkör
potenciális
tudjátok
hajtó
ezenkívül
elemző
értelmezés
biztosítva
##gépek
magadnak
tőzsd
mulat
zón
megelég
jelenl
választók
szervezetet
##köl
##pontok
vállalkozók
titeket
fűtő
##echnikai
cells
legmegfelelőbb
best
##szóval
kivet
irán
william
sand
##üljön
levet
##iroda
##ismeretek
éjfél
viszonyok
jellemzői
##veszélyes
szélsőséges
hozzátartozó
körös
törvénykönyv
szexvide
hazugság
begyűjt
semleges
viselet
használom
családot
##árius
##zata
felp
feljelent
túlzás
erejéig
kidob
okir
felhábor
útjára
bizonyított
vitorl
rájöttem
hülyeség
elhangzott
viv
##kölcs
értékeket
téri
kitartó
debüt
bekezdésének
grafikon
##festék
boszork
máv
##isztán
##ációját
fejében
frekvenci
zöldségek
listát
rovat
##szervező
átlátható
canon
##anként
munkájuk
olvass
tisztességes
örökös
##vatart
##árend
felvett
művészek
közgazdasági
napját
##irl
tokaj
nyíregyházi
ragyogó
váci
##pír
##jól
##onom
képregény
mennyei
##lések
##dos
##érkép
szakad
##szemüveg
##vizsgáló
kérdezte
kirend
esedék
szeretnek
torny
zsírsav
szemem
biztonságot
tünete
serv
ors
olyannyira
vállalunk
próbálta
kényeztet
ügyintéző
koktél
oltár
rendszerváltás
jutó
pihenni
hálószoba
parkban
lenyom
kalifor
mecs
##rang
##körny
hősök
átlép
borb
ajándékba
politikusok
szolnoki
rejlő
agresszív
luc
grán
szeptemberben
##ődnek
konstrukció
érv
írók
azokban
jöttem
reagál
kimagasló
##uszi
tartása
##édelem
toler
füstölt
light
rm
infra
leköt
előkészítő
leghatékony
##asztása
ingatlant
##rakész
számítanak
fordítani
ünnepélyes
mennyezet
are
##urd
utazó
légzés
bankszáml
érzékelő
##atók
önbiz
környezetbarát
##foglalás
kimondottan
sun
ünnepek
híg
##iába
##atty
illó
karossz
ismétel
megbocsát
logikai
hagyományok
éb
##ster
##kin
kézhez
##szabású
kórok
finanszírozás
##rébb
fejlődő
ülésen
időkben
##filmek
mérsékelt
kezdettel
baloldal
esetlegesen
flash
##sl
kitűz
webhely
##gatjuk
generációs
tervei
kereslet
gazda
dönteni
összegű
tájékoztatása
szemöld
amelyeknek
##eibe
iker
##cript
##fiatal
krémet
tolna
labdát
releváns
##ukon
##ásaink
társulás
következők
adósság
mindenkor
csoportban
elvégzett
csillagok
lézer
telefont
zug
jelszav
fokon
oroszlán
##áik
velenc
eltör
szoktak
középfokú
panzió
asztr
számában
maraton
próbáld
fax
##ujj
yout
tűzi
legerősebb
##yan
##orzs
##nyolc
##opter
váltott
nehézségek
gyengéd
beállított
mérkőzést
lav
nan
##ogott
##ázzuk
szaktanács
igazgatási
zavaró
indokol
objektum
kompromissz
gom
hangz
referenci
visegrád
rept
##jeként
##gyulladás
végeztek
lelke
palota
átmérőjű
egyszerűsített
##aszám
kedve
szerencse
éjszakát
hegesztő
mindazt
elmul
eszik
sportoló
kezelések
jelenléte
##ágó
írott
egyetemes
elemei
norbert
sely
##uza
értékpapír
vízálló
szabálysért
brand
reflex
teljesítménye
receptet
tum
##ht
teréz
thom
erdők
##yúk
kipróbálni
szerek
takács
tartozékok
felajánl
szúnyog
uv
céget
biztonságosan
tagállamok
svájc
krumpli
##értek
látok
háromszög
##allgatás
panaszok
hihetetlenül
george
gall
##káros
egyikük
##vizsgál
##stru
kárpátal
##lődés
ügyes
beszáll
kivételes
pott
##csik
jogalkot
zárja
összegét
jellege
metsz
csajok
cin
ul
jelzett
##eszem
dolgozom
súlya
##módosítás
cukorbeteg
juttat
cur
##ítandó
térítés
földgáz
hozzájárulása
##gen
##ald
##eser
ellenállás
from
tradi
kormányrendelet
előrehal
kedvencem
tüneteket
idézi
tizenkét
szótár
készítmények
pör
tűr
##hűt
##ttől
megnövel
##ükbe
##ádat
##ckó
fűny
ellenőrizni
nyrt
kellően
komárom
határidej
indulnak
##hagyó
bolond
házirend
kézb
csillogó
beruházások
##fert
gyám
##házat
szentlél
megismerése
keményen
folytán
##rén
szerz
borot
hidraul
lakói
túlsúly
bölcsőd
konferencián
ból
##kötet
##atossági
szerető
euro
gyermekvédelmi
gyógyulás
minőségét
frissítés
ath
farmer
drágább
hiszt
átjár
betűk
idősek
megszületett
figura
úszó
megírt
megsüt
szerzetes
teát
szakgimnázium
flex
roll
kliens
összeom
jártunk
kreativitás
összeállított
##sárga
fosz
sztr
##éra
rendellen
##velő
megismerni
felismert
##ense
##ogatta
használatának
érzést
sértett
televíziós
fokhagymát
pv
munkájának
##iszi
menő
##rendszert
szegeden
kiállítása
konzervatív
mnb
##eme
vállaljuk
központban
szükségem
##ury
válni
árbevétel
betűt
aktu
gyümölcsös
elítél
árvíz
városa
magamat
folyóir
kiállított
sajnálom
adódóan
visszautas
nyelvtud
feladatai
asztalra
kérünk
olcsón
animációs
gor
##fát
tematikus
elkészíteni
helyszíne
hordozó
garanciával
hajlamos
konzultáció
propag
pánik
##arn
mix
##ósok
barack
elhúz
##művek
összetart
##kever
alapját
halált
közoktatási
##cht
életüket
lakatos
nézze
kérdésem
tények
tegyünk
bög
##óját
szemszög
érdekeit
csalód
szerződő
kormányfő
közlöny
nyilatkozatot
látnivaló
pornóf
ellop
kiadása
felejthetetlen
felépítése
kisgyerek
támaszt
##tatva
unit
##társasági
felkér
magunknak
brav
##eter
##erőt
##ossága
kenyeret
##labda
##plaszt
villa
igyekeznek
varázslatos
ókori
nagyk
##tabb
képeken
megvalósítás
##ártól
haladt
igényeit
szenvedés
szedni
hozzátette
korrupció
##liget
##jaik
létezés
drót
jelentkezési
etikai
defin
##egyesület
ébreszt
dóra
híz
nagyváros
ilona
kárpit
megmagyar
győzelm
jelezze
mah
visszaáll
irányítás
hegyek
##nyelvű
számítástechnikai
##ttá
csőd
##ütés
##isten
bővült
megőrzés
egyforma
közismert
márvány
teendő
művei
háztartás
együttesen
megközelítés
##iából
kezdés
irrit
igazoló
életév
##társa
társai
elmaradt
órákban
cukrász
beszélgetni
médiat
##anövel
mindhárom
keresg
fogyasztóvédelmi
promó
kanadai
##ware
meccset
konfigur
hinni
tanít
magasan
étkező
sky
##gyártás
tanultam
##hellyel
##úló
ismerem
széd
alapból
hoznak
esetenként
##formán
küldemény
jogszabályban
csecsemő
##ui
##itől
ellátva
hollywood
munkában
adatsor
beszélő
értelmes
kedvezőbb
spanyolország
kt
##sza
aratott
világba
kitűn
orvoshoz
özvegy
szabályozott
menti
hírlevel
nagymértékben
dimenzió
bosch
##nam
##inárium
alapozó
alapismeretek
törekszik
találjuk
válaszokat
tégla
megmutatja
továbbfejleszt
használtam
regisztrál
muz
##omnak
évezred
proszt
pilót
sláger
##jóléti
mün
##apott
életvitel
sikere
eltérően
nedvesség
##pán
##edbe
##kört
legd
célzó
##félek
engedélyezett
tízezer
konyhában
dc
kevert
##honnan
gyümölcsöt
dé
csalás
szabályait
póz
eme
magyarországot
felhasználásra
kötelesség
helyzetét
jegyű
vitéz
használatára
eldönteni
birk
##írozott
tartok
okot
hiszi
kategóriás
nőknek
ízületi
boszorkány
budapestre
szenvedő
megőrzése
zsinór
szendvics
##arag
keressük
vallásos
gyűjteménye
ventilátor
dolgoztam
romb
##ual
##arr
stáb
##alkat
##szűrő
újrat
fiai
igazolja
olvasd
tetov
szervezése
véres
vezetékes
##bú
##fl
elődönt
végett
##adásra
##kodni
hajók
kizárt
megfogalmazott
diktat
##olhatja
végezzük
ord
darált
ötletet
geomet
tranzakció
anyák
gondolkodni
##echnika
donald
##erej
##ikkel
csata
másra
kérés
ellenkez
kíváncs
##hessék
gél
##aty
##esített
##edv
kezdenek
##ántúl
alkalmazási
innentől
##vásárlás
megegyezik
fodrász
hetet
jac
kavar
kiépítés
##ságára
kézilabda
horror
értelmezése
felvid
megbetegedések
béb
társasági
ostrom
pass
##orozat
##ebook
##játszó
tekintse
fali
rettenet
##király
dum
műszak
cserélni
étvágy
##vállalás
##kategóri
pisk
kiszerelés
töltelék
értelmiség
kiemelte
beépíthető
egzotikus
##lelt
##aválaszt
szövetséges
lift
xviii
előmelegített
azáltal
fejlesztésére
fenntartása
##orient
rájön
köztársasági
##uki
vendégház
hitelek
egyéniség
locsol
pokol
kandalló
sta
tomb
##zatot
nagyap
eszköze
##uktív
gazdálkodás
puty
##felúj
##képvis
félnek
##csatorn
kozmetikum
középiskolai
tradicionális
lakik
tagad
kedvem
különbségek
horiz
titokban
részvételével
deleg
vákuum
rezs
west
xvi
##anunk
gyerekekkel
képeslap
minősített
##addig
##ódását
foglalkozások
képviseli
búcsú
levelező
elkerülése
érzelmek
kifejlesztett
kü
ács
##cus
##orral
elállási
adom
cseresz
láttunk
múzeumban
legyél
horvátország
##politik
fazek
joghurt
tím
ernő
##közvet
javaslom
szégy
baktériumok
autópálya
##mart
szűn
##ettől
tűzvédelmi
távolabb
mellékelt
pénteki
##ikar
brig
boldogan
teremtett
hajnalban
ügyintézés
mindaddig
##tall
követve
hagytam
hirdető
szekció
csirkemell
vászon
óz
##amp
rendjéről
fort
##zetek
többségében
##load
##ülések
alu
irányítása
kovácsoltvas
win
óbud
##penz
##esítik
##hegyi
##okos
##csepp
adható
##ológusok
eléréséhez
belülről
áttör
leghír
pazar
szez
##javas
##ákba
rendezik
##álásával
gyakorlása
keletkező
fájdalm
kompetencia
szállítmány
##ris
##mély
##fark
belg
használó
városba
semmel
fotókat
kivitelben
rejtély
közbeszerzés
miskolcon
munkáltatói
kaposvár
ászf
jöved
ellátást
izmok
vaníliás
sub
##vill
##etty
adj
tudnám
játékokat
támogatni
keletkezik
dil
nagyrészt
fölös
sn
inj
alapjai
lakt
írást
volk
túlnyom
fiatalember
jellemzők
##isszió
hódmező
aláz
##felszerelés
##úrát
hónapokban
remélhetőleg
kockázati
##ölni
kapcsolódóan
garantálja
hobbi
megi
anyak
figyelmesen
##részről
##főző
olajok
forradalmi
cáf
##ásnál
érni
harci
porcel
eseményt
igyekezett
védelmét
##gyűjtés
dollárt
cum
##iként
##osra
rendbe
##almasan
kutyát
távolságra
##hirdetés
nemsok
iratok
##rip
szentmis
##ágyaz
##csoportok
vételár
kicserél
fab
mb
##oma
könyvkiadó
hozzáadás
örömet
énekesnő
kompetenciák
hul
##ílt
belem
elme
hagyom
##vezetője
őrizet
##weis
##szöveg
szolgáltatásaink
##őzni
társasága
bejelentett
nyolcadik
protokoll
fából
##őlegesen
belsőépít
##váltó
masszír
love
##aló
##ode
nagyszabású
tanterv
##ömör
veszünk
borok
egyenletes
társasház
zacs
##ive
mással
megvolt
csillap
eltérés
hódmezővásár
fenek
fogam
fogászati
alapelv
változatlan
kétszáz
elnökség
mutatkozik
dud
pasi
##ado
elhelyezés
##űzés
világnap
lépnek
találkozni
fővárosban
lebeg
vo
hangzott
szerződéses
válaszolni
##dísz
dunak
kolostor
kúria
azelőtt
##érek
igazságot
támogatta
##ozzon
rámutat
potencianövel
##fólió
zöm
eláll
foglalkoztató
módszerekkel
##essziós
##ugeot
ric
##rus
##entes
alapterület
félpan
válaszok
készítettek
tulajdonságok
szintetikus
tu
##rikát
szte
helytelen
önöket
megjelentek
technikák
##ane
##igen
mellek
ügyet
##tatják
bérlő
manuális
ajk
##orban
##itással
kiírt
közvélemény
##öltöz
szokták
fejlődési
felhívjuk
határozatot
aur
fik
időpontot
adventi
illóolaj
pra
sám
##gyűrű
##atva
alt
kívánunk
festés
helyszínre
farm
lili
mv
##szom
flor
bicikli
##elje
##áter
##eves
kezem
menstru
gondoljuk
agyon
indokolás
##érzékeny
##ásom
darabokra
jutalmaz
szavazat
működni
##aiba
movies
##rális
inni
anikó
##találkoz
apuk
matric
fegyvert
##hattuk
##udatos
differenci
##sang
##öttünk
másodszor
##ivált
célokra
esélyt
optim
hétvége
követelményeknek
szerkezeti
pogács
egészben
harmonikus
múzeumi
szándékosan
fellépő
##gazdálkodás
feliratkoz
youtube
coll
cegl
zúz
árat
csoportja
padl
tegnapi
kikötő
terj
##eltség
##oldó
rendezték
javascript
##alth
vidéken
házaspár
megváltoztatás
kapszula
elefánt
##esben
telik
foglalkoznak
tagjait
defini
##rí
szc
munkám
koránt
##szerűs
közvetítő
szorul
ülésének
partnerek
prefer
##ns
találnak
némileg
fordító
ösvény
sín
##aterm
##taur
költözött
hívták
match
közepette
debrecenben
sorszám
kezelésének
leküz
fők
##gás
##atom
haja
minthogy
írják
phot
kiváltó
nyomtatvány
energiatakar
##esre
##ázva
részecsk
##övezet
##adásának
##elnie
xiv
##sünk
irányú
elvitt
tartottam
bosszú
radikális
aer
tark
##íciós
eltart
érvényesít
tanulmányait
public
kristó
niss
##nkat
##kedik
hangoz
finanszírozási
##lár
legnehez
emeleti
célokat
ismereteket
kialakuló
motort
csendben
egyiptomi
méregtelen
óceán
##berend
##eszánsz
palat
kölcsönöz
natur
##őjében
legenda
##zók
##yr
##atter
kávét
tragikus
semmelweis
alapot
versenyek
erősítő
változása
##ágyas
pillang
születtek
tehetünk
ezelőtti
koncentrál
peugeot
rál
##cin
beat
termékeny
veszélyt
franciaországban
széleskörű
mögötte
tapasztalatai
bekövetkez
kw
síp
##óvár
##jaim
tárcs
szeretjük
eredményét
tevékenységi
idegenforgalmi
ezekről
ráford
győzelmet
megszerzés
kilométeres
meghallgatás
corvin
gyanúsított
szóvivője
##ogni
vonalk
relax
teng
jogait
##elemzés
gyereknek
filmes
fülöp
hűség
sivat
vl
folyamatokat
algorit
##ennek
##köző
személynek
elmagyar
meghatározni
felvételt
demonstr
sétány
##gyártó
##tábla
miss
##önség
akartak
##nyitó
zeneszerző
érettség
##milliárd
##arton
##köre
másokkal
néhol
pszichológia
hozzáférést
##nököt
##pi
##orf
előleg
##epl
függőleges
kormányt
használta
gyógyszerész
felületet
mérkőzésen
szántó
fogyatékos
ce
##amell
korong
látva
királynő
bizottságának
valószínűséggel
integráció
bitco
##asok
##ukciós
tudnék
fejjel
idejében
jelentkezését
akkreditált
lisz
##izációs
##kötel
##iasz
itteni
alkalmazását
##kering
épülete
költségeket
megnyer
társaságában
színpadi
##hop
##evert
okt
teste
vizsgáz
labda
kiállítást
patri
hangulatát
gás
##örvény
##ject
vizsgálni
közvetítés
farsang
kidolgozás
édesapja
gabriella
lább
röp
áz
##isk
this
tanácsa
adatokkal
porc
borssal
testületi
hajnali
jászberény
spont
##tion
találkoztunk
tevékenységének
képzést
##kínál
##odi
költséget
vettünk
nyerni
antibiotikum
frakció
##assá
beruházási
##jövő
koleszterin
##oke
megillet
átgond
bírja
alkalmat
logikus
kielégítő
##ítania
leon
álma
teszek
sötétben
funkcióval
lezaj
btk
cle
dri
plet
rektor
##onéz
hétre
fontosak
problémája
kazinc
món
wat
##dülő
rendhagyó
felhasználni
töltse
tárgyakat
toy
tömb
szállodák
nemsokára
érző
##evél
teljesíti
meccsen
éhez
##löv
##eder
jónak
jegyek
hónapra
##zenei
kub
pos
rév
##uding
dénes
kó
##pászt
##my
tudná
termékcsalád
baby
mennyiséget
meghívott
báj
bark
darabok
vágyó
dalok
##éval
##ikán
kiszolgált
gyúr
ottó
lehetőségeit
fejlődik
fentebb
gabon
##rögz
##lottak
##anéz
máshogy
találmány
##rendezési
eszközzel
motorral
megszabadulni
figyelembevételével
ng
##esült
##evékenység
gondolata
versenyre
##verés
rendőrkapitányság
##out
##obi
menj
sérelm
állatkert
hajtott
változatban
repülőter
megélhet
enzim
##opor
követik
##koló
iskolás
elfogadása
jogosultak
##kereskedelem
londonban
szubjektív
kori
##méret
kormánypárt
díszített
##fogyaszt
lg
leng
##hom
##szervi
mir
szükségesek
statisztika
putyin
sat
zenek
bri
fúv
szand
adódik
körült
oldalakon
minősítés
italok
kongresszus
gulyás
##akövetelmény
ion
pint
elek
sokaság
beth
##etekben
fogyni
foglalkozunk
engedéllyel
vegyen
plan
##tar
helyezi
szobával
civilizáció
cukorbetegség
sorrendben
kolbász
alapértelm
##ivé
konkur
következmények
levend
alkotások
##allerg
megállapította
hagyományosan
lukács
hölgyek
noszt
##ugy
voltál
megjelennek
fedő
##modell
ismételten
##fokon
tank
iskolát
tulajdonosok
bankkárty
elkészíthető
megvalósuló
közreműködő
böjt
##estert
összed
ball
##modul
leghíresebb
visszaél
jogosul
éppúgy
fajták
vételi
gh
##ültetés
##forral
fejlesztését
erőtelj
mosd
eseményen
küzdött
lekérd
elsej
tudatában
istentiszt
##áztam
##ködő
vizsgakövetelmény
ellenőrzi
repülőt
##tábl
za
##ablett
fogorvos
árut
megosztott
bűncselekmények
állatt
##élete
véli
középen
idejű
aligha
gazdaságtudományi
harcos
kutatói
elkölt
##szárny
bíbor
##lód
történetében
rendszerbe
alkalmazza
pályam
videok
szexpl
kezelését
##háború
korú
sorba
hajszál
folyamata
sms
rajongó
legelső
visszafizet
örökbe
templomot
büf
nézőpont
##agok
amelyről
kiállításon
megtekinthető
##olcsóbb
##szász
keresel
igénylés
falra
menekül
erőszakos
utólagos
##kával
érezhető
mintát
korcsoport
##emberek
izzó
édesség
bevallom
mérgező
minimál
plety
##adva
gyöt
évében
##iller
##úrák
kívánság
nyarán
koreai
fag
##core
##atnak
napvilágot
élettel
##ivitás
reakciók
##vidéki
karton
nulla
lob
mór
újszerű
##essenek
##ítsunk
medic
zárta
sötétség
sétál
alkotmányos
mellkas
vonalkód
gáspár
hőség
rendet
jelentik
transzfer
megérint
##érni
##rendel
céljára
kötni
legalacsony
szelektív
összehasonlítása
kelem
##unkból
újpest
kedvet
dolgoztak
intézményben
képességek
vetőmag
kiszab
felhívja
fav
##akod
lakk
##assza
válaszd
##kötés
karakterek
tükrözi
paszt
##óból
##hettünk
##eltük
újszülött
konst
elnöki
elnyer
gratulálok
körültekint
##átlan
csönd
##izálni
szemle
termelési
csapatban
vera
kötelezően
üzemeltetési
bej
helyezni
világát
használva
nyomd
rendezte
bérlés
koal
komponens
adatsorszámra
##nusz
köves
intel
permet
##üreg
masszív
adásvétel
hin
pizz
##áá
emeli
kisváros
vonult
útnak
mostanra
találod
szlovákia
tükrében
balesetek
spr
##valót
beleg
##tatási
üzletek
ismétlő
pozs
felhívni
implantátum
##éte
napilap
##öreg
##kelet
életünket
##jegyek
holttest
immáron
elárul
mindenekelőtt
nissan
mák
ubor
##fon
##well
versek
akarták
megfigyelés
ellenőrizze
ján
##iára
##úri
felár
##odban
szolgálnak
##peres
nosztalg
felzár
tartandó
hátral
merény
ízben
értelmetlen
kedvezménnyel
soproni
bón
high
munkánk
veszélye
előnyben
kikapcsolva
fc
##nők
marian
viszket
tagság
gondoskodni
hátterében
alelnöke
kend
##ril
szág
szing
mindny
tartás
javító
nyílászárók
mapp
##úk
##elünk
##anod
szan
világosan
oké
ügyelet
##zettel
otthonról
társaságok
halálra
ágyas
kódot
vitték
bund
nit
##tára
##ereszt
széria
##jánál
##adással
adatát
kínálnak
levegőben
kétszeres
lámpák
fodor
##oltuk
mozaik
nyilvánosan
megtekintéséhez
popul
röhög
notebook
##kölcsön
##féleképpen
köhög
örültem
harap
fogyókúra
##mens
eligaz
legolcsóbb
ervin
munkar
##keleti
töredék
##parancs
letelep
hiányzott
gyengeség
##javítás
vöröshagyma
zam
feltal
jelszó
telepítése
ther
merült
szimbol
fórumon
felmerül
kifelé
advent
##este
eltávolítása
meztelen
ster
##őtt
mielőbb
válog
nemzetek
mentor
csípős
értesítést
##voltából
download
viktória
algoritmus
au
onk
tessék
forintért
gyorsaság
jegyet
megállapítás
##személyes
tetszés
kibőv
tájékoztatta
székhelye
##by
telepített
kényelem
tartalmat
évtizede
kifinom
elszámolás
back
##nis
leadott
deszk
kapjon
csilla
jelleggel
férfiaknak
megfigyelő
munkanélküliség
kós
##aga
nyiss
elsőfokú
elvi
rendeletben
többszörös
reneszánsz
tiltott
billentyűzet
betekintést
eltekint
prem
korunk
##iszent
társa
okoznak
felülete
kedvencekhez
kiállító
burgonya
##vo
hírközlési
##forgó
raktáron
bevándorlás
##hasznos
találkozhatunk
##rendszeri
madar
##sárg
##itter
##bab
napról
értékelési
nyomdai
cseréje
gyakorlatot
büd
betöltött
ébred
bme
nát
##ötty
##atokra
vízszintes
fordulhat
rendezvényt
téves
mindennapos
gyalogos
jótékonysági
sajtótájékoztatón
##centr
szeminárium
értékben
kocka
##festés
férjem
megszórjuk
bolgár
##mával
##ilkol
fogalmak
takarmány
megpróbál
allergia
##érvény
veszít
nyitotta
bűnöző
vettük
feldolgozó
##mozgás
számmal
##alizált
jogosultság
##örzsöl
budak
élvezni
grafikai
láss
diagnózis
értekezlet
als
##iga
##usú
erek
##ebbé
éleszt
kérek
oklevel
veron
temes
vm
##roh
##eneti
##szól
##szex
##onim
helyez
##ávon
tartózkodás
##dhet
kiskorú
india
csillagos
gabona
gyűlölet
lik
rum
##márt
lehetsz
tany
oldalas
régészeti
fokú
szellőz
elvárás
##nöm
##ozom
fiát
tévedés
növekedési
elképzelése
üzenetek
cirkusz
##álásra
pontokat
szabályozza
futni
utcára
saláta
milán
tengerparti
ropogós
##rában
##ináció
időnk
rendszerét
felhúz
népdal
veres
##négy
januárban
korrig
menekültek
##kérdés
szelíd
##balép
##szeretettel
felvált
idom
abs
aging
##űen
##ágnes
fejezte
levente
kötél
tárgyú
helyszínt
krémes
vehetnek
forgalmazott
gyűlöl
messzire
bull
pav
szm
állok
##idet
különálló
módot
vállalta
levág
mindegyike
street
##ószer
##chi
díszt
mentés
##övetel
történetének
keretén
cons
kerestem
fazekas
##hai
félret
nyomor
##pari
elérhetőek
##főtt
sebességgel
##anic
követett
célzott
babak
hatálybalép
tablet
vásárlói
fazon
pit
##oka
balett
bereg
tanévben
leggyorsabb
szász
érted
okán
##zsír
betör
##ándékoz
kilométerre
megkapja
galaxy
##ogás
##hatású
amelyhez
jóvoltából
hangosan
szervezetünk
##lie
mértékét
elektronika
járműv
látogatókat
állampolgárok
lélegzet
ky
ség
szerelhető
##epr
tech
kérheti
jelentést
meghajt
lábát
időpontját
teremtő
gyanúja
inzulin
készségek
lehetőségünk
nyújtotta
live
##futó
##kísér
hévíz
wil
##onban
személyében
rendszerének
járok
megtag
modellt
alakulnak
brazil
book
feldob
értettem
munkái
##ugh
országból
rakott
kollégák
tárgyalás
targ
bakony
őszén
restaur
##zenek
##etések
nézem
hozzáállás
kérdésekben
hivatala
antiszem
##termékek
részesült
vegetári
##menedzsment
letisztult
##árgy
kiab
##iment
irányítja
különbözik
találhatóak
tulajdonú
álláskeres
államháztartás
batt
##fe
vallom
##ókhoz
csoportba
finomság
együttműködve
voks
bac
fonal
##enny
spekt
hangverseny
vízügyi
megtéveszt
szívó
módszertan
építőipar
tepsibe
legalacsonyabb
##hh
##agép
##abbal
éli
anyagokkal
izgatott
elkezdődött
kukorica
twitter
##emelés
##ecske
##beszélt
apartmanok
##füzet
rúd
##évi
nyilatkozott
felfedezés
költségeit
nokia
amolyan
összpontos
szereted
oldalunkon
ima
vizsgáló
osztott
alkotmányjogi
ven
cége
játszottak
előadásában
növekedést
thomas
##enza
##ings
zsú
kollag
##inok
átadott
tekintély
szárított
hallgatni
csatlakozik
##kup
##akhoz
##ettség
címlap
programokkal
tapasztalható
helyesb
legnehezebb
kezet
vessz
##éttel
valót
néznek
##osságát
tanácsok
##krit
előkészítése
konflikt
tarts
idéző
tűzoltók
magányos
##fol
##ásmód
megnöveked
kapok
kétharmad
##részek
multif
rú
##dy
##áró
##ikban
##ékben
alapj
eurót
ismertem
##énként
megbízó
akadémiai
music
szerkezete
vígjáték
pent
##lata
##kór
##fák
##jain
átsz
néprajzi
szükségessé
téved
kocsis
orient
hangját
szigeten
erdőben
bevonásával
szikl
fokozottan
kádár
##lis
##zéssel
barátai
kontraszt
mechanikai
dalt
írva
véleked
meghívó
színészek
alapítója
##burkolat
tünetei
fakad
##cse
##feladat
kardi
könyvét
környezetében
vitatkoz
ígéret
richard
evolúció
lakótelep
belgium
pod
behajt
emlékek
kínálja
pályaudvar
liv
páncél
##hur
##ago
hatalmi
körülötte
osztályú
élmények
meglepően
híve
szovjetuni
megmérett
interjút
##lős
##adag
##ote
valuta
##vezetői
feltéve
idejére
égi
meggyógy
döntéshoz
pajzsmirigy
parancsol
##gek
elfér
határt
testünk
hívás
##munikációs
##betegségek
pilóta
diétás
##ye
technológiát
vendége
sütiket
rejtélyes
pénztárc
zent
##vás
##ésük
megfejt
ameddig
állították
gyermekei
boros
káposzta
ismeretterjesztő
##jós
használd
üzemeltet
évfordulója
mercedes
kaliforni
##ényt
évekkel
helyezést
átadni
##lói
zsar
választó
szólal
hivatott
alkotók
tolvaj
előírásoknak
lom
##odox
kapus
végeznek
##lására
közvetett
elismerést
kihívást
daganat
misztikus
jogokat
pontján
##barna
megosztani
táplálkozási
testvérek
öngyilkosság
bubor
keksz
must
##mász
##ates
##áli
##elmélet
ismerték
vércukor
megállapítható
templomban
megkezdődött
bom
##öccs
##hatna
nagyságú
##kerület
korlátolt
basz
ral
##íthatók
különböz
kérdésben
zenemű
##falvi
kötelezettséget
kegyelem
##klub
##getés
##emelked
képzése
sora
keresési
ezekhez
szenz
szakaszában
ültet
##itársaság
leghatékonyabb
##kodnak
##számítás
fordulni
állatokat
előnyt
döntöttek
távirányító
##ültünk
##ext
hozzááll
alkotása
fiatalokat
különösebb
említettem
közigazgatás
##választás
elhelyezkedő
kiszolgáló
megannyi
##edéssel
##ession
nyomaték
beszélek
támogatását
takarítás
agyag
felvétele
bízom
megterh
kvant
##ski
##ésbé
##érem
követelés
##ványos
##öltés
csapd
blue
megjelenését
szalad
hajtás
segítőkész
közalkalmaz
hoztam
klip
működéséhez
xvii
daganatos
##nadrág
##pánt
várandós
##tein
forintra
meredek
húzza
tudnivalók
dugulás
##hasznosítás
tengerparton
mindnyáj
day
pát
bead
helyezték
tehető
##számla
mozgat
állapotot
szobát
virágos
flu
radio
békéscsabai
house
testét
bírság
kódex
spontán
##sáv
idáig
##ábla
könyvében
kedvezőtlen
milliárdos
tüzet
##művelés
volksw
ay
kval
##uári
választottam
##műsor
hivatali
rosszindulatú
felületek
utasítást
megszerzése
hazafelé
robbanás
sus
elintéz
amb
mármint
legmodern
##uron
átdolg
teljesség
##kedő
főre
filmje
jutalék
hiányzó
illeszkedik
eltöltött
angliában
porcelán
kristóf
halat
törőd
rendelkezünk
##ange
##segély
alakulása
bölcsesség
választása
perem
szervezés
##ardo
koncertet
megrag
motiváció
deviza
fűződő
sportt
ikr
lud
##szün
nemzetgazdasági
szállítani
hatásai
próbáljuk
szombathelyi
bob
dol
hv
##híd
##oki
##ülök
##ajándék
helyről
képez
térfog
##szabályzat
energiahatékony
fűszeres
rovar
cart
móz
##itis
jogalap
segítsen
jártas
indultunk
gerezd
rehabilitációs
rendre
belga
törek
területeket
módosítani
legkevésbé
##érlet
érintkez
megmunk
gim
shar
sodr
tb
##vest
##kef
közéleti
##köves
mutatjuk
ízű
használatához
megkezdése
kombináció
roland
piz
##cske
##ize
támadt
dicső
szabálytalan
pláza
médium
analit
naptári
ezentúl
##ítettük
hibákat
fellelhető
résztvevői
tőled
faktor
borzasztó
dikt
kíváncsiság
csák
hozzáadott
tálba
rozs
bükk
derm
kk
vagyont
##vall
##ételi
felhők
boltban
hetekben
##adót
gyömb
váljon
rosszat
lakóhely
golyó
szorongás
ponttal
rivális
legmodernebb
jord
lelet
földes
##rong
elmondható
hozzászóláshoz
következményei
nagymam
hangszóró
philip
poc
ság
##akadt
százezer
bizonyítani
##újfalu
betegsége
##ogatja
kisebbség
dat
##csavar
használhatja
megtölt
felkészítő
fentiek
dunaújváros
büszkeség
mondhatni
tönkre
elnézést
##tét
végtag
vármegye
elmenni
elnökének
kérdései
dolláros
karbantartási
máz
##éül
megvár
kioszt
##izálja
legelő
mintás
##házas
szeretetet
választhat
pénzforgalmi
ideértve
szavakkal
találtunk
decemberben
közönséget
##szerkesztő
##üss
##hor
előfordult
melyből
kompenz
hagyma
bejelentkezés
##éjén
görögország
technikával
összerak
fűrész
pay
vizs
##őlt
##kök
##dőjel
jelenségek
ismertette
érvénytelen
indultak
rántott
##lini
##kál
##teti
szolgálni
gyönyörköd
sivatag
##arket
amiatt
##kiegész
atlét
jelölő
kormányzat
##mosás
times
contin
akármilyen
vonatkoznak
strap
fenntartva
road
párizsban
alföldi
##plex
félbe
alkalmazást
segítségére
ízletes
díszítő
hozzájárult
módosító
tavaszán
magánszemélyek
megkérdőjel
érik
előszeretettel
hátizs
fogyasztási
otthona
hordoz
skand
szerdai
tehetséggond
##eidet
kn
##éc
tróp
absz
kiegészít
eleje
menedzser
kismama
##má
közgazd
szemében
ügyekben
pénzért
soci
rögzíti
utaló
megmutatni
dac
filmeket
hiányos
kockákra
növelni
lekvár
bőséges
##nőt
ügyesen
jelentkeznek
hirdetési
konzol
megpróbálja
sugárz
sört
##cég
##nyí
létezett
webes
általánosan
érdeklődni
tömeges
híre
küzdelm
katasztrófa
réka
kapták
élethelyzet
földrajz
segítségre
fizető
soft
##elli
rendszerű
tartalmas
munkacsoport
##képet
##ezésével
ellátni
kanál
becsült
eltűnik
külföldre
higgy
sovány
képezik
társal
hagyják
abroncs
légitársaság
megállapítja
portfólió
hadi
##hessük
fertőző
étteremben
disney
szabadidős
vigasztal
csikló
##okrata
chat
##ho
##osodott
inc
fire
##ivár
írd
panaszt
jelentősebb
kellemesen
sérülések
instagram
egymillió
dram
##gan
magukkal
hétvégét
rangsor
egyenletesen
kelemen
##book
##oljon
##ito
tudjanak
szakorvos
célját
hangok
címke
döntéseket
fordít
arculat
munkatársaink
coun
beszélgetések
polgárőr
mp
szér
forog
lakberend
ellenőrzött
kedvence
asztalos
közgyűlése
nemet
alany
közérzet
mindem
válás
dial
olvasott
gyermekeknek
emlékmű
##űzési
plaz
mennyiségét
dokumentumokat
összekever
anyuka
összekötő
előrejelzés
szul
##okrat
##raf
hajót
májusban
sugárzás
demokráci
##köri
előirány
megszeg
fényében
kalcium
nyíltan
vesztette
##szárító
esztétikus
felébred
megíg
kértem
ecset
##eltünk
##órás
társadalm
épületgép
csütörtöki
egyoldalú
##étellel
gyermekeket
formáz
benyújtani
sampon
megpir
##mai
stop
eredménnyel
szegmens
védelmére
##esearch
előzmény
emelő
leszáll
felelőssége
##erővel
kártyát
cla
szpon
napszemüveg
tünde
kémia
protest
bevallás
geszteny
középpontjában
naprakész
rajtunk
rakét
éghajlat
elhoz
külügyminiszter
##ugg
betan
opciók
beszerzési
kereszténység
szivacs
hőszigetelés
##bn
##ívebb
##gyújt
kérdéses
darabokat
hívott
tartalmának
csökkenése
bejegyzett
##tur
##öpr
##szett
gyermekjóléti
hűséges
mágikus
szemöldök
szentlélek
##getni
##anár
##bbá
préd
beler
hírnev
felemelked
mónika
##env
egyének
##község
országszerte
ismertető
kedvezményt
##enkénti
felszínre
beérkezett
multifunk
cink
##arin
részen
élvonal
zsóf
gyermekét
készítenek
beszerezni
kockázatot
építettek
liget
##ána
építt
esetre
kifejezést
vágás
ággyal
befektetés
alapanyagok
ye
nagyszül
helyezte
köti
középvállalkoz
megvalósítható
kupl
kep
látnak
embere
váltani
##ökkent
andr
babér
##termelő
webáruházban
##szalon
##javító
munkaerőpiac
bibliai
franch
##oros
emb
szólni
családnak
lelkiismeret
óránként
kereste
áh
##ségével
írom
vendégeit
előadásokat
adagot
volkswagen
kagy
pink
terminál
hozzáért
tizenegy
tulajdonságai
maradéktalanul
merevlemez
kilencvenes
horizont
bassz
##ítünk
##niz
érnek
erste
magn
##avaz
##rib
félek
formai
bankkártya
vadonat
elmondása
kulcsfontosságú
útmutatás
zavartalan
dízel
conc
##ítós
##izátor
számokat
veszek
károkat
témájú
csomagok
októberben
paleszt
előállított
##informat
fogant
nyaraló
recepció
kockázatát
##kerékpár
pom
ésszerű
megosz
##észlet
részleges
céljai
közösséget
azokon
elszánt
bang
nai
pisztoly
##ift
##do
##halmi
szerinted
fiút
igazolni
igazgatás
költői
##viselők
magamban
##ödém
japánban
bevitel
mexikói
bitcoin
zeb
szerelési
##vető
kapit
minták
elmos
jólét
széf
##vó
##don
##edkez
műsort
##enciát
szentély
repülés
pogány
rita
##kény
feld
körét
járd
csapatt
eszköztár
függőség
listán
bánásmód
elnyerte
gergő
elbírálás
pünk
tih
##felm
elénk
##érve
##atti
szakiskola
nevezni
darabig
elemet
engedelmes
csökkenő
##mozd
rena
bántalmaz
megemlékezés
magnéz
fogott
támogatják
szennyezett
ráz
##hig
kaput
élén
törp
vezetést
##esebbek
távközlési
ajánlati
ellátására
étolaj
kávés
harcot
##hassuk
gumik
térképen
pince
áldozatok
last
nőket
puding
külsej
láthatók
amelyekre
bajor
ítélt
időjárási
vámpír
emlékezetes
potter
benc
sek
megkövet
##unkhoz
programozás
kialakítására
megbízhatóság
gravit
fájdalomcsillap
legkevesebb
mold
##ách
##ékok
##adalom
##icz
túllép
lelepl
##ulásának
##szeml
romániában
parancsot
eljutni
mondanom
jeges
nam
##sburg
##kony
##csatorna
ágazati
pünkös
hem
##liszt
egybek
töv
kérje
csúnya
kidolgozása
sütőpapír
told
##gi
képessé
értékrend
hatásait
moson
frissítő
forgalmazása
csontok
németországi
magnézium
##tív
##vii
##hot
visszany
határát
lelket
megjelenítése
polgárok
hívni
##feszült
berendezett
oz
##atják
##lenek
megtest
támogatással
üdítő
előkészítés
megváltozik
mezei
kipu
##adár
állítása
fordulnak
megerősítette
nagykanizsa
mindemellett
övé
##ekért
##ico
abszt
barátaim
hidegen
kinyújt
tartózkodik
alapértelmezett
toló
##inn
igényelt
bármennyire
üzletág
##könyvtár
leszámítva
##aker
spam
töltés
könyvtárban
##pályás
referencia
research
##lip
##kedett
érdeke
istennel
ismerteti
kevéssé
##erőmű
relatív
pápai
filozófia
urat
emelni
kezeléséhez
vérzés
ihlet
kas
íj
útt
bejött
##ézs
jogcím
arcul
érvényben
öntöző
komposzt
dipl
kattintsunk
természettudományi
ukrajna
just
nagyra
erény
feladatait
megállt
megelőzése
magánélet
intelligencia
##lani
##bog
##utc
adata
ige
okát
meghód
fejlesztett
feltételekkel
zárult
információszabadság
vezény
jótállási
##nyugati
méltán
##plasztika
hacsak
eljárással
temetés
helyenként
márciusban
cipzár
felismerése
jubileumi
abszurd
##disz
##hettük
szerelése
keddi
problémái
kerültem
kikapcsolódás
impul
cn
mín
##ápl
megfordult
ellátási
szüleim
súlyosabb
művelődés
végrehajtásáról
művészetek
döntet
##iának
##des
almás
támop
termékei
novemberben
##ection
tudatosság
ceruza
##ásba
##építési
gyógyfürdő
bihar
hamburg
pótlék
szlovákiai
cim
##lub
fogas
részeket
korig
önfel
javul
emlékére
gyártmány
vitorlás
utalvány
teremteni
tizenhat
haladva
megvásárolható
fem
##iája
igényét
elmondani
##metsz
elvárások
beszámolója
musical
##áin
##inda
legsiker
szakáll
stil
lakosok
beszállító
borvidék
csoportot
kezelésében
óvodás
honlapja
parkolási
feltöltött
rajongók
olimpia
mechanikus
legrövid
hektár
előrelép
##zek
kapják
zuhan
classic
kra
pára
##aköz
##arm
gyű
megfelelnek
értesíti
gyökér
kondenz
electronica
manipul
nóra
végzettséggel
ötlete
hangulata
mü
##egyháza
##idat
áthely
fénymás
nehezebben
korántsem
feljebb
miből
távozott
számíthat
ülve
megtalálhatók
tárgyalások
odáig
hivatkozott
jókai
rátal
poén
sugall
serpenyőben
##szar
közfoglalkoz
kalória
módszereket
diszkr
sürgősségi
franchise
##obe
##ódhat
szembenéz
gombóc
##vadász
linux
gyulai
coaching
##fit
anita
##atic
gyakorolni
gyógyászati
sportos
utols
kritika
network
life
dild
lenti
mít
##údi
##iner
##irol
megtett
tájékoztatni
csupasz
##finanszír
sárospat
nős
nász
megtor
szabadságot
jutottam
atm
tápláló
##ations
kapcsolt
idézett
udvarias
kolozsvár
szolidar
##bors
éveken
képi
##ider
napokat
tárolására
##teli
ablakban
tesztek
morzs
tanfolyamot
desszert
tobor
tagozatos
felzárkóz
dózsa
##ítélt
##avilág
##övény
kérik
szintjét
rendelkezett
igényeket
utazni
honlapunkon
megkezdő
vegetáriánus
##kút
időbe
kötvény
származnak
szavazó
forgalomban
##pszich
##omor
részeg
másodlagos
helyiek
egyedüli
zavarok
elismerés
##vágó
súr
oláh
maradandó
kapcsolatokat
szilveszter
belegond
##egyeztet
nevéhez
anyagcser
alkalmatlan
elhelyezni
előadók
megváltoztat
##pedagógiai
##szállás
jogász
fizikailag
töltöttem
államtitkára
sűrűn
nyirok
bow
lt
##kaz
##íthetjük
teremben
##hozott
törekvés
árva
lehetőségük
járhat
lábam
fejlődött
##olvasó
elkezdte
##ernyő
büszkén
##utazás
legrövidebb
host
vat
##eled
nagyok
hívő
láttak
kimaradt
stílusos
összehasonlító
garanciális
ábrahám
##idegen
fogamzás
##enk
csakúgy
világnak
rendelni
##essünk
##nevek
szerencsém
melegen
februárban
szolgálják
szimf
szakasza
kiterjedt
üzenete
szíriai
ajánlattevő
küsz
##ália
##ology
beiratkoz
##opát
##ple
ismerni
tested
hasi
maradhat
##igazgatási
látnival
szállodai
lejjebb
##masszázs
lelt
##oln
##abás
nagyvállal
##ítsanak
hónapot
képzésben
tojásokat
install
pvc
fló
sip
##amer
alapjait
hangy
##házán
elmélked
megtör
irányított
darabja
kézben
kezdetén
befolyásoló
srácok
billenty
##cipő
bbc
bód
élen
állva
halottak
##osítást
vegyszer
##bejár
mellékhatások
sha
##szelet
##inal
építették
változt
megtalálod
folyamatát
koszorú
felbontású
csukló
matchbox
##értől
##orth
munkab
államfő
addigra
munkatársak
##szigetelés
##ojt
felbor
##izg
oliv
általad
feltör
irányul
fájlok
iparűzési
elvégzés
megteremtése
szilvia
##can
##kiállítás
##lással
tromb
nádor
mutatkozott
formátumban
ortodox
palatető
long
köp
kiszabad
minap
##ájk
##ugró
##práz
túlmen
honvédelmi
feltételeinek
kiválasztani
félelmetes
potencianövelő
kass
##yi
mars
istenek
nyomjuk
##kah
##acél
kialakulása
használatba
felfedezni
sózzuk
koc
##edagóg
érzett
menjünk
##osztó
bársony
próbálni
mesélt
júlia
önmaga
hatályon
emlékeztető
éhes
##helyettes
hind
##henger
##aris
átadása
##kedv
ellenérték
hiszek
##színvonal
##társak
your
mazs
nemhogy
végeztem
gondos
formál
átalakítás
fáradtság
férő
játszódik
időszakot
győzött
ötleteket
time
megkönnyíti
eldob
##nig
tudjunk
házilag
tervezték
irodák
dologra
ajándékok
operett
végrehajtása
udvari
megkérdezett
##űd
elérhetőségek
##forduló
ülések
valósult
szigor
bejegyzést
##védők
docens
megbízásából
brutális
plasztikai
szód
##attint
nyoma
##ózó
újrahasznos
##ffin
családias
elront
##szállító
adam
##órák
fejleszteni
##ársa
archívum
megmondani
reprod
gasztronómiai
helikopter
renault
that
##con
eltal
fejedelem
pályát
hasmen
alakítja
festői
őrzi
tulajdonsága
regénye
eredményeképpen
beilleszked
masz
##bál
##emez
szertartás
tartozás
##pontot
nézi
nyomógomb
népe
reklam
korlátoz
acc
statisztik
felügyelete
licenc
##ólyag
panoráma
##kollektor
hill
lag
##fajt
##ívó
##cho
szállt
halálát
gyakorlattal
leírni
becsap
műsorában
megfigyelhető
##ajánlat
sorozatok
gasztronómia
cigarett
##péter
##ikűr
##osis
tárca
követel
általánosságban
kezdők
vörösmart
##irodalmi
##ukkant
sd
##alb
##asztjuk
##termében
megőrizni
white
tragédia
mandátum
##elhárítás
wolf
##rakt
##bot
##örcs
élőv
érintés
nyújtja
szervezési
hasonlók
elkerülni
##programok
cross
pincészet
folk
how
oh
##oddal
szemtan
##rendelés
konv
thr
motorolaj
visszatekint
kosárlabda
belsejében
semmiképpen
nyolcvanas
##enziós
köznevelési
##able
járvány
térségben
meglepőd
##öcs
szerve
alkotta
visszaélés
csinálja
jövőbeli
terhelt
##bíró
túrós
elősegítése
kiszámítható
legrégebbi
mun
##iler
munkához
alkalmazandó
onn
ünnepe
##alapítvány
énekel
főzni
kialakítású
ausztriában
adva
utalt
##umpa
híradó
világhábor
műholdas
pecsét
kog
nom
##aa
sztere
##ettan
##ottuk
többit
mondhatjuk
határok
jövőt
kívánatos
torok
elkezdő
kattintás
tétele
kiemelkedően
alkoholt
budaörs
##múl
##hová
szabadban
##uszok
##ollyal
rögzítés
##segítő
royal
kript
vezetnek
táján
lépésre
betegséget
elkészítés
fogadták
képességét
színeket
büszkék
rig
##th
meghozatal
terek
munkákat
ági
öntött
léc
megkérdezte
fordulójában
##vénnyel
##szerszám
halk
sportol
sebész
úrnak
dokumentumot
olaszországban
gesztus
vadonatúj
##fizetés
méretre
tetszőleges
tábornok
cica
##inus
egységet
nyelve
alapt
fiatalos
fox
##lar
##ükről
melyhez
vérkering
mesés
akadnak
rólam
fenntartó
ablakon
fülbev
fegyelm
listáját
##ponttal
hep
##och
##ush
újrak
ismeretében
tapasztalatot
megnéztem
##béli
reb
##ológép
istentisztelet
kifinomult
fáb
megadja
jogállás
fehérj
kalauz
áldott
blogon
kérdezi
hulladékok
együttműködést
határozatok
dunántúl
ert
##atin
##üli
##ilmek
terr
okai
írj
mellettem
nyomást
javaslatok
égő
kaposvári
berg
kot
##rov
technikus
jegyzett
attil
projektet
##fajták
ifjabb
szigetek
##növények
emeletes
fáraszt
boj
húgy
##amond
##jaz
közgazdaság
##áznak
ess
időszakában
kifogástalan
moment
nf
szid
oklevél
közeljöv
tudomást
aláírt
felfriss
bejelentkez
laci
művészett
phd
legutol
házhozszállítás
megtörténik
tisztségviselő
##adtak
aloe
##ander
tulajdonjog
közepesen
victor
útvonalon
rendelkezésünkre
buzd
gell
fürd
alkotói
kalóz
ellaz
végrehajtási
érdeklődését
munkaköz
##olód
egyhang
cselek
világító
szívből
pozsony
eresz
szoftverek
méltány
kesz
lamin
##átort
##apát
##ségesen
tanított
leszb
gyakoribb
partn
##uzzan
pótolni
kikapcsolód
head
pulzus
kodály
vörösmarty
övez
autizmus
gondolod
nézte
##eitől
##fizetési
megszüntetése
kihasználva
moszkva
definíció
pozsonyi
pig
##ályha
részem
anyaggal
törlését
gyertya
ross
##ulásra
##ázók
álltam
füz
eltüntet
nyelvek
semmire
kapcsolattartás
frizur
trópusi
dózis
##endi
korcs
##ative
mari
##látogatás
eredetiség
lou
megegyező
létesítmények
karbantartása
nén
##no
##alany
##izma
tanter
lények
rögzíteni
veter
tennie
erdészeti
szakaszon
ösztönöz
magyarázta
hangulatban
##tiszta
álláspontja
family
university
##kincs
##evőt
nevek
##icc
##műhely
gyógymód
##olásával
elnökségi
motorok
##őképp
hegeszt
zsófia
##mo
fogak
külvilág
sokaknak
alkalmazottak
megkóst
##ermarket
mikroh
bújt
##yle
##aná
tűnnek
bemutatta
szikla
veszélyeztetett
filozófiai
célkitűz
kárpátaljai
taj
##nyilatkoz
mondjam
történész
otthagy
##fejű
edzett
összefogás
kockázata
bogrács
##enzi
legelt
ellenséges
párom
alkalmazásának
alakított
elvárt
elejétől
kíváncsiak
közleménye
zöldségeket
blan
rép
tobb
##osodás
tehetetlen
korom
esetet
váltás
aprop
küldte
észrevét
tátrai
##köteles
##öknek
törökök
ugyanilyen
juthat
migráció
káosz
visszafogott
etnikai
alszik
közút
##szered
márkan
élesztő
##latban
lépjen
tejjel
mutattak
macskák
adatfeldolgozó
beazon
##íván
képpel
életünkben
jogszerű
##ségesebb
kialakítását
vadászat
lelkesen
németországból
kötődő
bécsben
daniel
zálog
##usta
##ságával
valóra
dolgokra
párok
eurós
munkafolyam
százalékot
bűnügyi
bővítése
döntéshozatal
fitn
rönt
##ináris
csapatnak
állásfoglal
ágynemű
felvételek
változatát
háttérbe
labdarúgás
bevásárlóközpont
barbar
későn
minősülő
embertárs
##eikkel
##gyógyászat
kakukk
négyzetméteres
esztergom
##ügynökség
liszttel
cos
data
##pál
##feny
##szük
##csin
##enter
##usszal
példája
##ciókat
felvásár
portré
elhelyezése
angyalok
istentől
##medence
##hova
pres
áthal
kitett
órákat
kiegészítés
teljesítményét
linkre
body
rmdsz
anyakönyv
pall
szult
életminőség
vezetési
##készítő
felnőtteknek
##alkotás
savas
pintér
legsikeresebb
##jas
##jébe
##umer
jelezni
egyiket
szövetkezet
ismerősöm
felmérése
tételek
##birtok
törölni
lúg
##pektív
##kim
sztál
gyűlt
instr
##korong
kellékek
##chester
##óbev
kitelep
szíves
értelmezni
folytatódott
parkolás
írónő
kábítószer
kedvelő
kitűzött
##ety
##edy
##ölés
munkájában
írjon
feltérkép
szélvédő
leveleket
zsidóság
banda
nagyságrend
döm
móra
##akozni
##aros
fejfájás
hátr
utazik
jézust
tükröző
##uniz
paradicsomot
képernyőn
vés
vac
befelé
törvényjavas
távoll
költséghatékony
bővül
bajnokok
##atechn
koszor
eladni
andor
kénytelenek
weboldalak
partnere
svédország
mozdulat
puff
##mutatás
##azat
gyógyszeres
készítjük
kismam
déd
jim
sziszt
##iknak
ahány
házba
városháza
##ózott
költemény
eltilt
közlekedő
szereplői
szűkebb
vitaminok
kollagén
mig
##gyes
##éséért
##ítélet
közli
deut
magánt
##anyom
irodában
mosdó
nyitvatart
jellegzet
értékesítése
bevont
kávézó
##ua
##ozhat
kérjen
törés
feltűnő
változásait
rövidített
ismertetése
megvalósult
funkciója
befejezése
székesfehérvári
kézbesítés
##tatok
##űző
ezren
##oboz
háta
hófehér
elektr
felületén
sorozata
tata
vény
##edését
mérések
hars
##gatók
##végig
rendőrségi
tünt
logó
pálinka
vb
##inális
##kedni
másodfokú
blokkol
húzni
erdős
áraszt
háziorvos
makó
szürk
érdemel
csatornák
##amarabb
csizm
##veszik
fényképek
minisztériuma
moderniz
apostol
magy
##gomba
##evékeny
##ünkből
balass
tájék
##ottsága
érdeklőd
##afa
kötetben
elszáll
##használati
narr
segédeszköz
##űvész
megítélése
harisny
duzz
ehelyett
##enjük
##ársaság
fogadják
egyházak
utalás
durv
emlegetett
histor
kuplung
kérték
nyü
miszt
fogta
##inknak
##play
##féleség
versenyképes
jol
##hul
##hetne
enik
anyai
##oszex
kiküszöb
parton
osztálya
szellemiség
belefér
meteorológiai
etet
mált
##oktató
leford
munkálat
nevezhető
##formák
országba
híreket
tanácsokat
stílust
közgyűlésének
készenlét
golden
##bányai
letartóztatás
##cák
közélet
akaszt
meghagy
reperto
palett
##ossuk
utasok
zavarja
elkerülhetetlen
megnyugtató
adminisztratív
sod
##osav
lee
miénk
szakadt
főtitk
pontszám
azokról
klu
tapasztaltam
találkozót
hitte
magyarázza
bethlen
ast
##itim
##ukról
helység
visszaemlék
alkotják
dobog
látogasson
##úszott
megvannak
trian
gdp
feltehetően
gluténmentes
ferrari
közeljövőben
úri
##ettél
hatalmat
árakat
teljeskörű
vonzás
kancell
megtartani
eltávolítani
megtudni
lind
##ool
##bánya
mindvégig
##hatósági
##oston
nevezési
videos
szobr
##művészek
alkalomra
rajzfilm
közönséges
tompa
évszázadok
##okrá
##áma
bec
nyitás
magá
részből
##lalt
betakar
hallow
weboldalt
ülést
##központú
megtalálhatóak
##lor
##rata
##sag
megáld
érm
##kötelezett
másképpen
##iszta
segítette
szervezetnek
##ítsen
##megelő
öltöny
sorsát
racionális
bepillant
egybeköt
##bútor
emmi
magzat
végel
szakirányú
vízszint
családját
kalács
videókat
kíséretében
estére
átalakulás
berendezése
orvostudomány
##keltő
rezgés
kozmikus
jusson
mú
##ici
##álé
életébe
hangon
##járás
szálló
kredit
hamvas
remeg
megállapítani
hatékonyságát
áprilisban
tájékoztatót
módosítására
megmutatta
brüssz
tyúk
##pof
##fűrész
##ilton
##kifej
dolgunk
területét
jobboldali
beszélhetünk
nyugtató
feltételeiről
középiskola
metr
lelkipászt
injekció
##sír
##elin
##etted
##iszter
##utatók
nézek
fontosságát
időszaka
végignéz
élelmiszeripari
feszültséget
elolvasni
tippek
konténer
##jéhez
felelő
mondd
választják
szója
vélhetően
mélyén
válaszát
esténként
elkövetkező
nyilvántartott
##lások
##eron
##unkról
várták
spen
létesítés
feltételeknek
engedélyezési
augusztusban
##figyelő
nyaralók
tímea
tk
##nyán
kara
vonul
ajánló
##anti
vélt
##újvárosi
viszonyítva
beszédet
tartózkodó
kosárba
malom
##kákat
nemigen
incid
víztisztító
szavai
bajom
##ökös
kegyelm
##beszerzés
fojt
erejű
élőlény
##dem
szeretete
##osztát
sportegyesület
tervezi
tanácsi
felhívta
##archia
tartományban
##iat
tött
##ekedés
fiataloknak
elkészül
éjszakára
látogatott
ártalmatlan
kövek
vendéglátás
rágcs
seps
érve
beh
állatot
mondatot
percek
hidd
hibáz
szimb
makacs
elképzelhetetlen
tesco
világbajnoki
oxid
##tablett
teológiai
tárolja
gépész
annyiban
terjedt
tápegység
kbt
működtetése
reagált
##választék
hercegnő
csípő
vegán
szimpla
isbn
keresd
kulturált
témával
agyi
környéki
számlák
millen
káptalan
cselekedet
adózó
rendeltetésszerű
##higién
##ítógép
alapította
##felad
fitt
fejemben
##formáló
hajú
dolognak
##arian
feleségem
felszíni
megismétel
velencei
túlmenően
kím
##elekt
##ünkhöz
##erseny
testben
megvit
##egetni
megnyerte
olajos
olajjal
számítógépek
hozzájárulását
kihívások
esedékes
pek
##apat
##edjük
szerintük
emberre
igazat
felhasználót
felsőbb
gyakorlata
elképeszt
kocsm
megvásárolni
terrorizmus
könyvelő
értelemszerűen
barbie
##szott
megnehez
magyarországról
csodát
elkészítéséhez
stílusa
kuratórium
##szivattyú
megnövekedett
mő
##áska
megbeszélt
##ságnak
##andóság
tanulásra
##ezzenek
szórakozó
időpontjában
rajzol
cserélhető
pezsg
##aberendezés
meghatalmaz
##ábr
linkek
érvényesül
diagnosztikai
chris
feledkez
skandin
pötty
sodor
kisvár
gondok
gondoljunk
indította
tettünk
linken
ruhákat
megtanulni
köszöntötte
büntetőjogi
hunyadi
puhára
bámul
##ejáték
öko
##akból
különböztet
berlini
javasolta
hibája
hozzájut
##peri
paks
retro
cseppet
szakdolgozat
mama
##akeres
##ikáját
megterm
##szeretet
##veszem
mondván
##helyre
öltöző
dátuma
írnak
##ölték
szóról
ízek
múzeumok
utóbbit
rf
programját
indítás
##anyagokat
viet
arcán
##osabbá
kivételesen
eladási
##öre
gyap
##evel
##ádium
##ütő
hirdetett
jelöli
mennyivel
tágabb
##teljesítmény
##függő
lx
##kár
##mas
elav
##rey
mindek
##inka
biztosak
karamell
könyvvizsgáló
fogyassz
kifejező
lényegét
linket
hagyományőrző
urunk
befolyásolják
szegénység
jelentőségét
elvesztette
szalonna
##gyull
szind
##nyer
##csík
közalapítvány
érdemben
##fiók
gondolatait
találkoznak
díjakat
##idős
fejlődésének
megújulás
magyarázatot
helyiségek
##fu
jelez
szakmunka
születése
generál
koncertek
befektetők
idézet
energiával
kezdetektől
hűtőbe
##gyakorlat
rekonstrukció
##bur
##szok
##oldalon
problémás
blogger
izgalom
oldani
változatot
tálaljuk
honvédség
fis
##erh
szerk
beleh
oros
viszik
tró
okozni
használtak
konyhabútor
diplomáci
újjász
födém
megál
##ománc
##ites
adóbev
élve
##eff
spa
útközben
hajszárító
együttlét
tagsági
érintőkép
plüss
##eztette
oktatásban
biztosítjuk
kivitelezése
ékszerek
audio
megkötött
##nyelvi
kiterjedő
móricz
őrizetbe
skandináv
##túra
##anom
szfér
##iki
utakon
markol
színre
szállítása
##enciális
kötelesek
jutalom
állapotának
matrica
##try
##hassunk
csinálok
áldozata
##érzékelő
bonc
##odtam
szemek
##ítója
csapattal
megszor
darabos
zenél
melegek
örömteli
sajtos
aminosav
puskás
zakl
rally
way
##alisták
##bben
rendezni
gondolták
önrendel
biztosította
jobbágy
szabadul
megjelenést
történeteket
értelmezhető
kand
##ságáról
beik
##ille
tényt
jövője
buj
lady
embl
jogkör
##öntő
hajóz
helyzetek
intézményekben
születésének
ábrázoló
hőszigetelő
túlnyomó
vip
##sön
gyanak
érzet
##zsam
lelass
letilt
őrület
travel
külföldről
influenza
alapelve
érthetetlen
##rendezés
kötődés
paprikát
keretei
sajtot
fertőzött
klinika
airb
legyőzte
szérum
mosonmagyar
tasz
##emelő
##osult
##hattok
tudását
képgal
végképp
verb
csomagban
csökkentett
csinálnak
project
##ancer
mosogatógép
hátizsák
##űvel
##atjuk
##ole
megörök
##opl
olyankor
beteljes
mérhető
hátlap
szabályozása
megjelenni
késedelem
lányom
légkondicionáló
reptér
cib
sutt
##lig
##lád
fogalmát
##ábl
gazdák
megállapítására
azonosított
belterület
ütemben
leghosszabb
##kocsik
##évet
##kolt
esc
diad
környezete
visszatérve
felelősségű
mesélte
mondanám
sig
##uit
##maj
##árral
##ülhetetlen
##amban
##hatnánk
tere
léptek
kilincs
állatorvos
szkenn
kiépítése
páz
rassz
##edény
mail
##jétől
stabilitás
##megyei
##felügyelet
palacsinta
##felújítás
fás
puc
##szezon
körébe
ügyrend
##útra
férfias
vérnyom
júniusban
galaxis
ijesztő
szabályos
rádiós
##csökkenés
tatabánya
gok
pf
##nős
előkelő
rendezése
megtalálják
##játékok
##akadémia
összehasonlítás
mínusz
fun
sakk
##rin
##mot
##érő
##csuk
ent
termékeit
vizsgát
elvét
falon
tárgyat
metal
generációk
traum
tönkret
visszajelzés
tolmács
bun
gord
##cos
invit
foglaló
osztályok
kiegészítve
klímavált
figyelmeztetés
bónusz
##gattam
##atej
##íthatják
csics
##ázst
műtárgy
ariszt
jogról
pároljuk
versenyben
ajánlunk
##rendszere
rólunk
kivitelező
patkány
rejtőz
futómű
betartása
balesetet
határideje
jogosulatlan
##vendég
elrab
kezelik
készre
##próba
megfelelni
szórt
lépése
hallható
erőforr
automatizált
környezettudatos
kistérségi
kihelyezett
ferg
##fúv
##égett
##áth
##jelen
kivételt
huz
kerüljenek
megküz
örömére
küldje
mögötti
zártkörű
fenyegető
spektrum
fekt
lang
##annak
##álya
láthatunk
viselni
ajtón
mátra
cselekvés
beszélgetést
túlzottan
sátán
hétfői
ksh
marx
rendszerünk
anyagokból
tervezte
csodasz
varrás
good
kutatócsoport
##szolid
tempó
prófét
##ognak
##ution
naptól
szakirány
rendszerében
nemzetköz
##ápolási
szervíz
schw
nyaklánc
kockázatok
méltóság
jövőbeni
szerszámok
aljzat
plázaci
zir
##ődő
behúz
##tárgyal
indián
##mentesítés
hívjuk
elkövető
értesül
sütőbe
csíkszered
édesanyám
pác
##szil
megsérült
##élvez
##ukba
##ükből
legkedvez
termelők
szakadék
taps
elvek
##átora
central
szövege
felületű
benj
benső
fejezetben
építésű
zrí
csésze
sokrét
##ebarát
##ullám
fehérjék
nyílás
felkap
disc
kistérség
gyömbér
gt
##anal
##adós
visszal
##őzzük
kézen
##ónus
kedvezmények
kíséri
felületre
bejelentést
székhelyű
puly
nyüzs
call
##enes
alfa
várva
##összeh
multip
jelenlétében
celeb
megláttam
kiszolgál
akác
##ációra
leszármaz
csalódás
##ozottan
szereplés
iskolája
szentes
brass
nyújtunk
##lagép
ereszt
menüben
##beton
diszkrét
diploma
beg
lott
rh
zsal
##előd
##édzs
autent
java
igénybev
döntését
##etésre
tojással
gazdaságos
jókedv
ugyanezen
elégedetlen
##kultúra
olyasmi
bott
sens
##fegyver
##ikált
tartogat
##aszent
alkalmazásában
sportcsarnok
találkozón
típusok
##keresés
előnyeit
bátorság
##mind
##ardi
összem
stream
továbbjut
eredményesen
földr
##eztével
szövőd
működéséről
évtizedben
visszaszor
fölösleges
##odon
részévé
javítását
szolgáltatással
biok
expl
végrehajtó
igazságszolgáltatás
megkezdés
szülőknek
fantasy
margarin
##deni
##gós
##ésekkel
előidéz
prob
hier
arn
szakiskol
stock
##essy
hiszik
következőket
utazott
vitam
ferencváros
táblagép
dokumentumfilm
kijelentette
plébános
cipr
belevág
##őbe
jelenetek
akarata
kábelt
kiszolgálás
elmozdul
termékkel
azokhoz
percen
kormánya
terhére
határozati
hegesztés
##gyártott
vöröshagymát
##robotok
bejön
##abor
mondanak
vonja
határozzák
cégnél
támogatásra
ellátások
cuki
arányos
konzor
kurva
báth
szomszédságában
kormányzó
készleten
szaun
megsértése
tokaji
##anta
##imir
##oldalas
villam
fenntarthatóság
##áiban
karácsonyra
hányad
migrációs
tűzoltóság
##orientált
szponzor
élővilág
##kant
átk
forrást
kalkul
próbálom
hozzájárulnak
átvette
végtelenül
személygépkocsi
lmp
ms
almát
közmű
anató
világosság
gondolunk
visszafelé
feldolgozott
moham
alapjául
mózes
dramat
##pet
##una
##ikusabb
használjon
##pro
##acska
technikát
próbálnak
függetlenség
társadalomban
luxem
##kedveltebb
elz
tudnánk
##iszk
jogállam
termékre
iskolákban
erősítése
biztonságát
széklet
blogot
kötete
diplomát
vanília
eltekintve
lid
##amra
érrendszeri
társkereső
tagjaként
említ
foglalkoztatott
amerik
##világítás
humoros
utóélete
besorolás
alátámaszt
tudd
fejl
szépek
tekintik
helyzetekben
költségei
krémek
##tive
oktatók
irgalmas
császári
kompromisszum
óbudai
##pak
##mutató
beach
##őkre
értékelni
valamire
teremtés
iszap
felépített
barátnője
energiatakarékos
incidens
héj
mass
##asban
magyaros
összez
munkálkod
##etését
kialakul
##körzet
időszakos
belőlem
seggbe
kölyök
cry
fapad
saf
kezeljük
éjszakánként
élveztem
előkészület
hozzávalók
mandula
mítosz
sepsiszent
zrínyi
zé
éber
##go
##ccsal
képei
fogadás
munkások
nevel
##erson
változnak
filmtablett
egyenleg
éltem
udvaron
dobozban
toyota
elképesztően
dék
##elent
##csák
lepl
arm
életmű
nevezi
##antin
géppel
üzemben
szövetségének
szembesül
erőfeszítés
átmenetileg
##csics
##uri
formula
szolgáltatásait
magasra
szakmunk
unióban
nálad
virágot
sétára
emelkedő
##túr
napjára
készíti
##rendező
páratart
térítési
sportolók
szeptemberében
decemberében
nyilatkozata
figyelj
vezérigazgatója
dév
előv
másfelől
##osszolg
##ápoly
jegybank
okozhatnak
nyereg
összehív
hátránya
bell
fuj
misszió
eljátsz
##aph
kellenek
melyeknek
főorvos
országosan
dolgom
városközpont
##lésű
meghajtó
alkotni
autóban
tűnhet
szellőző
vörösbor
ritkábban
félidőben
akiről
napkollektor
haladni
mondok
országában
versenyki
lemarad
anton
titkosszolg
akadályozza
szállodában
tinédzs
csábító
vereséget
##álással
##ítvánnyal
rendelkezéseit
##ökkenő
üzemel
turn
veheti
##vm
##edelmes
világi
irányítani
##ürke
egymásba
kiállítások
##hessünk
demokrata
vásárlása
csatornán
beszámolót
##nával
##rent
##szenz
##almakat
stem
steph
ellensúly
boldogságot
bemutatója
##áramlás
nikol
hárman
elhízás
mikrohullám
spenót
hus
lán
##sim
valóságot
színét
célpont
dolgát
##szabályozás
könyvtáros
bonyolultabb
tenyer
cellul
megjegyezni
szárnyas
napjáig
védeni
##jegyet
comment
együttműködő
igyekeztem
kísérletek
szórakozást
csehország
mozdulattal
lá
##égium
számba
tanítani
rendeletek
mondatok
hagyták
che
oroszok
télap
püspöki
control
megbetegedés
némelyik
diszkrim
##kolni
betilt
párja
frusztr
##ofil
alakít
üzletben
##ermék
vizek
tapasztalatokat
kamerák
előzőleg
kötődik
tátra
richter
hatáskörébe
rudolf
corvinus
enikő
kad
spray
célcsoport
##inder
attit
közepére
siet
áldozatot
bizonytalanság
kifolyólag
cookie
büdös
hir
programsorozat
meghúz
tevő
kertészeti
unatkoz
##ökött
egyetértek
nyomtatási
adminisztrációs
ütközött
guszt
national
szüntet
##nyák
##azdálkod
mozzan
köszönetet
alkalmanként
megfoszt
színekben
tehetségkutató
meghallgat
hosszútávú
cegléd
sepsiszentgyörgy
vőleg
##ozunk
##ségére
láthatja
írások
társaik
hagyaték
##mentő
középkor
elkeverjük
##kamara
krumplit
feltűnt
##anulmány
centi
jag
##set
##mé
##leírás
interf
kikül
társadalombiztosítási
kérdezni
urban
ígérkez
folyosó
anglia
suli
kijön
váló
##ativit
zseml
országa
városnéz
választóp
hazaj
központjától
történetben
elhagyta
licit
megválasztott
marosvásárhelyi
##öf
##zetlen
halkan
termékekkel
szépírók
beszéltem
homály
levele
gerend
javaslatokat
hegedűs
orsolya
mh
pack
##tábor
elvezet
##ázd
rendezi
##aitól
névjegyzék
érzésem
mondhatom
kők
nagysága
fogni
külterület
kérnek
következet
die
problémákkal
rendeztek
nyitottak
fizik
##ratég
##téren
büszkélked
##fúr
szedett
kiejt
többségi
képlet
értesítjük
beleb
ügye
pályaválaszt
alakultak
bőrönd
##éjében
felelősségre
kálium
visszakül
erejével
bekövetkező
pixel
##áné
##isztító
hatnak
érdekképvis
keresem
pályakez
##ségeinek
kollégáink
részese
grafika
elnyert
festőművész
rók
tah
##éjük
##arta
##íves
##ünkről
végezhető
sorakoz
bőröd
öntözés
ágyban
tojássárg
bemutatásra
ítéletet
élvezetes
bekerült
legkedvezőbb
poly
pánt
mellet
##számmal
rendeznek
tevékenységéről
csúszt
hardcore
startup
mosolyogva
gúny
##iköz
##üller
##ison
##egyek
##ovszky
időd
iratkoz
tril
kirakat
könyvtárak
tiéd
dolgozói
szakmailag
gondolkodásmód
zsákmány
##pás
##gömb
szereztem
invert
##állatok
értelmi
marh
keresése
volán
köztiszt
fenntartani
irodaház
vonalon
virtu
törekszünk
bach
vá
##vessz
##etikus
##ematikus
##hetitek
##assunk
szolgáltatásokkal
versenyeken
alakítani
##értéke
biztonsága
januárjában
egyénileg
növekedését
elsziget
ítélte
dombor
kínálatunkban
nándor
##sai
megalk
##álóbb
holoka
délre
megnyitás
észlel
évtizedekben
fölötti
szénhidr
közművelődési
utast
kaphatnak
##olyó
többre
meghitt
letakar
hulladékgazdálkodási
posted
kurz
litván
megismét
maz
##kis
jelet
##atosabb
rendelkezése
keverg
foglalkozom
nyújthat
##szennyezés
sisak
lezajlott
halloween
bén
germ
wars
##értünk
##back
részük
kong
##lapot
szorult
gombát
mennyiségi
comm
bosszant
protestáns
##ozatlan
akut
találják
sikereket
##ahitel
rendőri
öntud
igyekeztek
gyönyörűen
kabinet
pornófilm
közgazdász
##unizmus
nék
rabb
##női
##uer
##ema
állítottak
mintav
##lanul
##formát
oldaláról
harmónia
szobába
szobrász
felelősséggel
##éjének
összetétele
felújítási
évfolyamos
hetvenes
dedik
##ulcs
legkedveltebb
##írozás
##émi
##désre
fájt
oktatást
médiában
bőre
gázt
tatár
navigációs
basszus
meh
solt
sírt
##ened
##erma
##ogattam
biot
motorkerékpár
küldünk
díszítés
tégl
szerkezetben
házigazda
##centrum
mindennel
képét
értik
##zsal
írjuk
ballag
fogyasztani
babát
növekedett
közösségben
ettem
határozatlan
perspektív
újjászület
kendő
##alát
fejed
szeretsz
ugyanabban
imag
hírportál
megnyíl
illúzió
meglepetést
kölcsönzés
banán
középiskolás
hajlamosak
bírtam
csipetnyi
fai
##áinkat
##hó
##gyök
megindul
közpénz
karcsú
játéka
kihűlt
##aktert
kínáljuk
##marad
koncentráció
összeszed
pizza
mindeközben
jug
##esc
##odását
legb
hozzon
önnel
késsel
novák
vitat
rekesz
magabiztos
##omos
csí
feljegyzés
beaut
értékeit
##soroz
emlékszik
állapotba
terveket
módosítását
##alkotó
nevetséges
gót
ipart
illés
##fogadás
ismerje
térségi
tré
repub
megértés
sérti
napraforgó
##bérlet
javaslata
já
##apedagóg
kijött
nagykeresked
lego
hajós
megtalálta
láttán
bűntett
maced
##alj
meger
adózás
úgysem
melyekkel
modellje
kompoz
működtető
##lovák
tudományok
kopasz
transzform
sajnálatos
##zer
csopor
közszolgáltató
akril
##hatalom
devel
magából
kapcsolódnak
törvényhoz
alakuló
szélesség
tárgyát
kóros
feleségét
hűs
óvodában
előlap
gasztro
fogalmam
##fűtés
szakgimnáziuma
tov
##uly
folytató
formater
közelébe
gyűjteni
közepe
carl
jelöltek
közleményében
bezárt
somogyi
konfliktusok
##alni
állattart
hiper
kezembe
##vastag
programjának
néppárt
töltik
rendelethez
csökkentik
színk
szakaszban
feladatainak
egyeztetett
megtisztítjuk
##esküv
sárgarépa
szerzemény
nig
over
##lött
##rug
##bimb
##álódott
##jainkat
jelű
hozható
elsők
ismertté
határán
fontosságú
kihang
információval
##ernyős
megvásárolt
tragédi
lineáris
bohóc
kalocsai
legfelsőbb
kvantum
bodr
##etsz
egyformán
nyerg
##fejlődés
eszközei
hong
papucs
megmos
magammal
##szinten
antenna
jellemzője
##ődni
költségvetéséről
elszenv
beállítani
parlamentben
##ágneses
perg
rod
##dim
##mák
##arázs
megtet
marc
kötelessége
##újság
ajánlatos
óraszám
tapasztalatait
ülni
nyertek
húzódik
ruhadarab
##ajáték
hegedű
meditáció
menyasszonyi
kürt
puló
##ake
##ello
probl
telített
munkale
##uhan
osztályban
közölték
szurkolók
választókerület
lac
helyekre
munkam
##ózió
ötös
szívét
segítségnyújtás
novemberében
lelkileg
kipróbáltam
rajtad
hanyag
megijed
szexpláza
##tájékoztató
##kóst
##erült
tárc
ugyanannyi
gyermeki
##izmust
vágni
sebészeti
ablakot
##olajok
népszerűbb
tulajdonosi
méltat
bukaresti
steril
aba
get
sin
##távol
közkedvelt
intu
járja
szenátus
névjegy
kattintással
##vétellel
pillanatnyi
áj
##tény
##olimp
##vasút
házában
telepítési
megvalósítására
készítettünk
látványt
követelményeinek
cipők
megtisztított
beletesszük
sak
harg
területein
edz
forintban
elkészítjük
szavazattal
metál
##ellátó
syn
##bh
##okért
lecserél
használhatjuk
konszolid
elmenek
##ópark
##óbor
megtilt
ismertek
ideges
táborban
tulajdonságokkal
korty
color
leányvállal
eszmél
szivárvány
##eremt
megford
##éken
##izom
munkarend
##fix
foglalás
klára
vélem
szövetkez
hányszor
horgászat
kétségtelenül
összevont
lézeres
set
##böl
##erk
##ázi
éreztük
##abát
lépésben
lelked
istenem
próbára
kötve
elhall
##árdi
kívánom
kereskedők
júliusban
utóbbiak
##igris
konferenciát
##ambul
paksi
démon
honda
pony
lecsap
értjük
kezdem
négyes
##megáll
##megálló
chi
jelentkezők
októberében
vegyület
##akteriális
márkák
úszás
könyvelés
##hordozó
veterán
rusztikus
##lent
##áljon
újonc
műkör
alkalmaznak
megszavaz
##neum
opcionális
reum
turné
bélelt
munkavállalói
ápolás
döbbenet
core
sára
td
##üs
fogható
igazad
nevével
árán
keresztyén
költségét
bulvár
elkeser
membr
felállított
##szkij
tatabány
rokonság
barbara
##zása
##anz
szemcs
##rive
karaktert
költöztet
lapon
kategóriák
multi
##veszteség
határidőn
állapítja
statisztikák
közhasznúsági
zsiradék
balatonfüred
ajak
##pn
##other
##ukrot
koromban
##fiú
névnap
búza
háztartásban
vércukorszint
pel
tay
átvált
igényelnek
szavait
##uzin
megnyílt
takarító
##szórt
végrehajtani
##futás
##opping
szatmár
##office
buddhista
uzs
lettünk
elfogadó
##ermelés
növényeket
oldja
törölköző
##völgyi
kai
vese
feloszt
##elleg
használjunk
érvényesek
rendezvénysorozat
információkkal
takaró
idézte
érdeklődőt
periódus
stimul
##ítetlen
##otti
##rif
árlista
##ozásával
példák
polar
brid
megelőzésére
mezők
spirál
verziót
lar
##ulok
tudtok
képekkel
küldi
##enyom
##lón
frekv
családom
háromnegyed
szegfű
állapotában
feladatkör
felülmúl
meta
##óczy
fényképes
##partner
klímaberendezés
fajtája
funkciókat
feküdt
öm
##néd
##olót
##ségről
átny
szakirodalom
címk
pénzbeli
kényelmi
sarkal
gyarm
mindazonáltal
terjeszked
fund
húg
##ülly
lehetek
belügyminiszter
##évben
iráni
pontra
beszéltünk
épületében
ingad
papírra
intézkedést
##front
góly
kocsik
##ugrott
##felügyeleti
karosszéria
közgy
alapkezelő
úgymond
jogainak
akire
baromi
hollandi
##üzemi
elkezdi
folyadékot
kemenc
sugar
bug
##heg
végezet
várat
gyergy
rendszerességgel
anyagát
társaságunk
tegyék
terjedelm
tojásfehér
lángon
fertőzések
gratulálunk
hidraulikus
strapab
ray
um
##észség
párna
jutunk
tanácsos
##nác
beszámolók
átvenni
specifikus
pors
zem
##sit
##ave
csü
felrak
jelentették
tettük
jellegét
terhelő
műsorvezető
vastagabb
felajánlott
főszereplője
iszt
##elj
megnő
##otípus
oldalsó
##ombor
indik
anyagmoz
földművelés
királyné
raklap
infó
gyengén
illetékességi
megfizetni
keszthely
richárd
##kulcs
felülvizsgálata
##űrt
##eném
##álód
felveszi
tömény
##ázist
nyerő
bizalmas
##iro
tárolni
lakod
ponty
##jong
problémával
chic
javasol
##erősítő
felkészítés
fegyverek
tanfolyamok
elrendezés
kezdeményezésére
trükk
lad
##öc
##árban
##apt
##ilon
##cio
olló
emma
végbél
nézeg
horoszkóp
elemeit
szüleik
bevezetett
szándékkal
beszédében
megváltoztatni
##csatlak
szűcs
sztálin
##kok
##szlovák
##ukból
körök
##ösvény
fejező
szállítjuk
irányzat
órákon
garden
szétválaszt
asztalon
tablettát
vigyázz
cxx
ping
szereztek
##ámadás
##ázást
##estem
estek
##urvéd
szaküzlet
jelentések
gyerekkel
erősö
problémám
fordulóban
babák
visszatart
készítették
bajnokságban
települést
legszív
##költség
kibocsátott
improv
night
##ertől
##egységek
bizalmat
művet
éljen
hajat
érzelem
fokra
találkoztak
dobos
laur
##pótló
##isszük
emeleten
szorgalmaz
sít
##ots
tex
##telek
használhatók
igényei
érzek
csator
megrendelést
névleges
tojások
kiválasztás
megértése
fejlődést
hangsúlyozza
mérkőz
##ográfus
ipoly
gátolja
látogatása
##függöny
##szőr
##lehetőség
fényszór
##gatva
tork
szavazni
jutottunk
megtanult
pompás
bevándorlók
##kett
közért
eszem
függelék
fiatalon
fizeti
hegymász
mátrix
újságírók
##paprika
global
huszadik
kiindulva
limitált
koalíció
kúp
##táj
##zást
##áikat
##inált
##ogva
köznevelés
##abolt
hozhat
személyszállítás
cégnek
hallgatás
bement
egészségre
imádni
kísérletet
felekezet
lencse
multifunkciós
eltakar
prost
segítse
cégcsoport
töltenek
emléket
alkotja
fizi
háttere
normatív
vagyonkezelő
skót
asszonyok
vezettek
hatvanas
elárulta
##ng
##éséig
helyeket
önismeret
##ességre
nevére
teljesítését
alkotnak
vezetőjének
környékbeli
gyöngyszem
töttös
gárda
##akozott
##ésén
##ezhetjük
elsőbb
olvasót
kézbe
jegyezte
hosszúságú
kezelésre
számítógépen
##termelés
meséli
máltai
##lasz
##orr
egyfelől
##ényszer
átír
fejlesztésének
berak
cikkeket
szakemberei
domokos
##pályáz
vételével
nyelvtudás
nick
##dog
##job
kerettan
munkájukat
hangzás
változatlanul
##ödör
lakosságot
védelmében
epil
andrássy
kínálatában
támadások
olcsóbban
paraméterek
sajtótájékoztatóján
##őrösi
denev
bkv
szuver
suzuki
onnantól
ash
cék
##atának
problémameg
vezetőedző
kritik
botan
pesten
elősegítő
radn
csúszás
##öszönt
bögre
száguld
gn
ipad
##kek
##apír
##abar
amelyeken
##helyes
termékekre
figyeltem
gyermekeink
gyakorlatokat
írtunk
##fokozat
tizedik
téglal
visegrádi
cc
jun
##önként
##hetnénk
amazon
visszhang
közelgő
hírlap
próbálták
express
kezelésével
jellemezte
vetette
feszes
feleségül
megérkezik
first
bébi
evez
##ásként
##leny
##ovic
alapjog
##tervezés
törli
maria
párás
rácz
legjobbak
engedte
őrzött
digital
elvárható
csehszlovák
interjúban
memóriak
secur
##pot
##vád
##sug
dolgokról
parlag
foglalni
indiában
finomabb
tárgyaló
vonalat
verziója
kiadványok
megegyezés
rizst
fürdőszobai
##oterápia
wikip
fűnyíró
kímélet
autentikus
dab
lük
ízel
##cy
##atárs
##olvad
lejátszó
##uka
bizalm
várok
karm
krízis
levét
megvalósításához
húzott
látványosan
kecskeméten
kommunizmus
céd
##lőket
##jan
munkasz
stádium
verset
határában
gyógyítás
ellenőrzést
büntetést
varázsló
követték
lazán
megpillant
##filmet
zsírégető
bájos
küty
##olhatók
műsorban
##tatjuk
címére
kényelmet
hívjon
weboldalunk
rögzítése
magukra
teljesítéséhez
hollandia
bocsánat
szexvideók
##aly
##ental
képkeret
orális
átadja
érdekek
adatgyűjtő
vízpart
kérdeztem
kulcsszav
csodaszép
aust
szája
megun
rendelési
közeledik
szervezője
kompozíció
dalokat
ügyfelei
kakas
gyulladásos
ideiglenesen
galériában
penész
francis
kaliforniai
konzorcium
űrt
kezdik
megteszi
döntenek
andi
számíthatunk
százalékra
##munikáció
##ómed
megtaláljuk
fülhallgató
összefüggés
igénybevétele
lebonyolítása
kétségbeesett
pszichiátriai
pályakezdő
##elheti
##örsi
átnéz
követhető
marokk
javult
##templom
alakulás
távozik
összesített
idegenek
kolléga
intézetben
különlegessége
prior
münchen
bunk
etető
kezdetek
városokban
igényli
igényelhető
balos
anyagcsere
magassága
tapét
csillog
felvállal
tömlő
tapasztalatom
összehúz
közölni
elolvastam
##áldem
szekszárdi
alexandra
##fenntartó
organikus
legutolsó
##úszt
kérésre
jogellenes
felhasználva
stroke
figyelemre
űrhaj
jelenlétét
esztergomi
megalakult
beilleszt
pigment
zökkenő
##utott
legkülön
press
találok
ajánlja
##indely
középszintű
egyesületek
##intézetek
készítik
felhasználónak
érzékelt
reformáció
ráncokat
erdélyben
##iparban
gondoltuk
html
##ts
megel
ali
mintáz
használhatják
nézhető
felhasználásának
bőröm
megszerezni
lakossága
érzések
albérlet
ostoba
örökölt
##kabin
hortob
zsúfolt
##uronsav
attitűd
##upl
beindul
jelzik
szemhéj
javítására
gépeket
bíráló
üzletszabályzat
hírei
szerkesztője
odak
íróasztal
szociáldem
útmutatót
##ennégy
bevez
##állást
##ményt
kornél
példakép
szakmában
érintse
forgalmat
##gazda
bíróságok
conn
durván
teljesítésének
##bejegy
fánk
lász
záp
ezalatt
szerették
##ábel
megyesz
##lásra
zöldséget
cserep
befogad
műtéti
premium
mong
##nyik
##apart
alvállalkoz
##atási
talajt
sorát
írói
örülni
##oldalán
sütni
hívnak
élőhely
partnerünk
##trágy
üzemeltetése
tálc
fertőtlenítő
szakközépiskolája
keresgél
nep
##cer
##aka
depr
##almár
##valóság
legmély
anonim
##aságot
árú
##ingatlan
##enciák
fénye
##palota
ügyfélszolgálati
pozitívan
tulajdonságait
messziről
háborút
előírásokat
cancer
##egtet
##ettet
##azott
deci
tanítása
átruház
feltett
foglalta
tekintjük
légzsák
kisebbségek
simics
zajlanak
letöltések
látogatható
bocsátott
bazsal
dőlt
megemlíteni
lot
pump
##ométert
##uska
##őrzés
spár
megmozdul
magamra
rendezvényre
nőknél
kultúrát
táblák
ítélték
alapanyagokból
viharos
díjátadó
operaház
nej
##ukhoz
halhatatlan
teljesítette
betelep
huaw
visszahív
##honos
növend
barátaink
kápolna
elvesztése
pert
súg
##álós
##utód
##utya
tudással
orb
időről
kételked
##tatására
elemekkel
többszöri
élte
meghívást
átalakítása
kértek
pihenést
könyvesbolt
dilem
leszbikus
bony
ps
##vizet
##áé
##aknál
szertart
legitim
számlat
kérhet
##formálás
hazav
iránymutatás
fejleszti
erősíteni
megnyert
turmix
kimarad
békét
tehetjük
terhelhető
szándékos
##cskán
gondolatokat
kialakításában
anyukám
felhely
##ava
várdai
szaktud
zsűr
testmozgás
kézim
##munkát
aszalt
homlokzati
fennmaradó
hargita
tut
was
##lep
##kőzés
##árny
megvet
##elly
##óker
hatalma
autógy
visszahúz
##részlet
##időben
tábort
elvégre
sétálni
rozmar
bányász
dühös
elvisel
kezdődően
bugyi
loránd
köbméter
himnusz
##rangú
brüsszeli
vőlegény
##várt
egyrészről
kijut
##szerrel
összefon
gondozó
termékről
##extus
istenn
szolgáltatásai
rövidesen
szövegért
élményeket
vajjal
utasítások
terepen
tüzelő
szovjetunió
bazsalik
duzzan
müller
pag
##oval
##íthetetlen
##iten
értük
kereset
határérték
megbízást
megőrzi
számítottam
##board
bilincs
épületgépészeti
olvad
prím
gondolnak
kitéve
apác
tanácsának
fordította
mozgós
érzékenység
készítésű
dekoratív
kitalálni
megtakarítás
repülőtértől
legszívesebben
csír
##teret
melyről
##ágyak
szava
fotel
kapcsolatát
kockára
estén
##jártó
megindult
gránát
bür
epr
gel
##izálása
##ükhöz
##ggal
##lehető
névvel
szüret
példányban
jóváhagyott
foltok
misszi
country
holokauszt
ever
kob
##szerv
print
ester
mintsem
edina
tanulság
viták
osztályvezető
homoszex
múltban
blogja
szereplője
bakancs
elkülönített
róma
mikrohullámú
eladott
##ilit
nagydíj
sorolhat
sperm
hallotta
merkel
melinda
súlyt
égbolt
érvényesítése
felismerni
érdeklődést
rajongói
games
árajánlat
key
##ozhatja
kiak
legvég
végzünk
hatott
körülvevő
csapott
fejlesztők
kérdésére
elérhetők
késlelt
pontosság
távolról
felüli
joe
emailben
párkapcsolat
service
életévét
##alkatrész
minimálbér
rac
felállítás
##ukott
telken
tartsuk
mérése
lábánál
sebészet
előnyei
kölcsey
felszerelve
kapuit
megcsod
fried
management
szókincs
állattenyészt
gec
felerős
emese
##ásokhoz
##órát
javítási
támogatásban
porszívó
##venció
imádtam
harcol
speciálisan
geot
tizennyolc
fájdalmak
koncentrált
létszáma
figyelmeztető
trendek
fűződik
levendula
##apatron
sokrétű
huawei
bah
##nitív
##űlő
levezet
beüzem
haladás
rendszernek
értékesít
hátán
bárkinek
csomagoló
tesla
áttekintés
liturg
diktatúra
pocs
##ítok
felére
##ajár
nagykereskedelmi
mary
találhat
##rendez
lakberendezés
értékeli
beszámolt
szedése
megtekinteni
szoftvert
##magasság
teherautó
közleményben
##csillagos
közoktatásban
repülőterétől
hárs
##ning
##ettebb
##isex
##artalma
legfiatal
##attartó
##jeinek
kezdtük
kerülne
szigetelő
bolti
italt
sértő
rozmaring
eszerint
náci
##konc
előfelt
teendők
##engő
adatvédelem
irányítási
abc
tájékoztassa
kovász
kulcsa
felbontás
##las
elmer
##iteli
##azás
esnek
szerepeltek
borász
helyzetéről
érkeztünk
feladatát
mezőköves
masszát
vigyázni
megszünteti
##nitúra
lokális
henrik
##iva
##fek
##gyar
##orta
##olo
##ánta
legérdek
##avas
mintázat
jelenték
segit
termékazonosító
indítani
tagjának
népes
cégeknek
problémára
kívánják
orvoslás
éneklés
elektronikusan
hívei
hungarian
megnézzük
kialakításának
kitalált
feltűnik
jogorvoslati
gombbal
hop
##onna
##okom
##atást
kapjuk
szemünk
##tatható
hagyva
hasáb
##áttal
pontosabb
projektben
tartalmakat
lelkem
birtokba
valljuk
keresztények
felmérések
választéka
ilyesmit
ötvözet
katasztrófavédelem
##apcsolt
gellért
##has
##furt
akvar
árver
huszár
bizonyítják
bemenet
százalékban
zárható
maxim
lelkét
mustár
gátló
közelebbről
vasútállomás
stef
afrika
##roham
rong
wr
##vani
##uláris
##ilabd
minőségének
tejf
vadon
szimul
serdülő
##szavatossági
helyiségben
ugrott
alkoholos
oktatói
struktúra
ütközés
adrienn
##als
##ezhetetlen
##jeink
céljuk
##assanak
verses
arcra
láthatóak
weboldalán
megszerezte
kreativit
szétt
szociál
infrastrukturális
kinga
termőföld
alagút
élesztőt
szimbolikus
##összehasonl
hern
##cat
##öbl
##wi
##elg
##olányi
##arab
világból
útvonalak
vizsgálta
hallom
semmivel
adóról
leírást
építőanyag
mozdony
nagyváradi
kézhezvétel
veronika
dés
##fikáció
##yol
elaszt
megélni
##csom
kivel
fővel
rendszeren
nyomvonal
megoldására
köszönheti
kínáló
rakni
hatékonyabban
csökkentésére
kontextus
##fajok
értesíteni
rohadt
pozíciót
infrastruktúr
esélyegyenlőségi
jelzálog
klímaváltozás
##lével
féltem
igényű
indonéz
elérkezett
##özőbb
eseményre
valószínűs
ung
gazdagon
gondolkodik
kopony
körülményeket
hátulról
kezelőorvosa
kígyó
jones
aspektus
##nyílás
középvállalkozások
##amér
mid
jelenteni
árad
töltsd
##talanítás
kézbes
elfogadom
migránsok
soly
űz
##fás
##amba
kaptuk
képre
jogai
##zsi
váltotta
oldalakat
##öty
beszéltek
szerencsejáték
feldolgozni
követelménymodul
hűl
bánat
megfigyelése
vírusok
röpl
juttatások
##eszkóp
lxx
rib
##rő
##esszt
##ude
bevállal
tudása
jeleket
kisüt
személye
olvasói
##értékelő
aktus
ízesítjük
megrendelése
édesítő
pornós
kitüntetett
kanapé
buborék
kávéskanál
##zak
##mok
##mark
kies
kitt
##áraszt
termelt
jócskán
továbbtan
gondnok
##ices
kívánjuk
különösebben
vitát
cikkszám
köztünk
lakáshitel
levelezési
mestere
üresen
jövedelemadó
faragott
szirup
##környezet
jogállásáról
##elát
##olódik
közbe
érem
bizarr
létfontosságú
perform
megtartása
élettani
##harmada
publikált
elégedettek
semmiképp
kvalif
ds
sing
##ilia
albán
##asztotta
stan
életen
nézzen
gyakornok
szépsége
bőrön
mélyre
véc
lélekt
udvarán
levéltári
megkezdett
hosszútávon
reprezentatív
##heim
tárolása
életéről
##tartalom
fehérjét
holmi
kiemelni
örömöt
egyházközség
öntjük
szimmet
utalnak
##maraton
multik
keltett
bolyai
orvostudományi
ugrás
zebra
nég
##uval
##ajz
tudattal
évektől
##aszab
kérhető
emberben
##jelzés
##field
diak
térbeli
utazók
korrekció
kerekek
türelem
újdonságok
rendezésében
ovi
##hé
##ereket
##ents
anan
merthogy
programozási
gondolatot
kérdésekkel
##ítmények
##álásának
témákat
hívők
##olajat
viselkedik
érdekelne
szabványos
tűző
mérten
busszal
napsütés
háztartások
megmutatkoz
gipsz
röntgen
egybekötött
elavult
##tattak
##ebár
használok
komor
##ombin
összeesküv
közelről
kilométert
emléke
egyetemisták
egészségbiztosítási
orvosa
távolságot
tömege
hangsúlyozni
magunkkal
homeopát
visszalép
hadt
keb
##ogi
##raft
leped
##artalom
nagyany
tudó
##avirág
tanítók
szakvélemény
##teher
##telenné
segítése
maur
vízből
magasságban
üzletember
hívó
figyelmébe
nyitni
megvalósítását
könyörg
olajban
sérülést
magabiztosan
felkerült
vajda
gmbh
atmosz
bamb
felénk
haw
számvitel
magd
végbe
utángyártott
javulás
kereszteződés
településfejlesztési
énekelni
szerkesztett
összekött
haladja
hősi
narancssárga
bocsánatot
szentendre
ránézésre
##kínálat
##zendő
nagysz
előmozd
állókép
##ízing
hatállyal
nyomban
sötétebb
egészségesebb
##mechan
hozzászok
hüvelyk
porcukorral
pulóver
equ
ptk
alárend
##ködni
átment
mesét
üzemeltetett
atomerőmű
főiskolán
bronzér
bertalan
kiküszöböl
megzavar
##ulások
terül
megfeledkez
pénze
hatásának
semmis
csatolt
híven
pann
sound
##hard
ülése
szenvedélyes
betegségben
food
feltárása
csomópont
településeken
fitnesz
##ófi
##itások
##enta
legkülönb
kapcsolja
##képesség
##oszláv
nyelvvizsg
emlékezés
vendégei
könyök
##ócz
kizáró
szerkezetek
radiátor
tinik
infláció
elhanyagolható
megdöbbentő
kognitív
kók
##óhoz
##nket
célul
nyomozást
kiteljes
greg
patron
allah
fokozatos
elveszíti
kényelmetlen
borzalmas
kiépített
barcelon
sütőpapírral
dy
girl
happ
lxxx
##uru
értéknap
##ózik
olvasása
megvenni
fejlőd
amerikaiak
##lámpa
fellend
hulladékot
küzdeni
##lelk
kocsit
##feldolgozás
lejárta
##ladány
ezredes
ic
ted
##edvez
##urc
élhet
érdekesebb
vonatok
értékének
féléves
túlterh
nyomott
nyomot
beteget
zenészek
lapát
ismertetett
fenntartott
demográfiai
lemezek
##pályán
döntöttünk
malac
árfolyamának
játssza
leader
zeneműv
szórólap
képgaléria
fölt
mec
##nán
##fk
beágyaz
##eszik
mérni
változhat
engedni
hamilton
fizetnie
májusában
tévés
öltöztet
értekezés
elmentem
elsődlegesen
zsinagóg
villámgyors
tolmácsol
gipszk
##áiról
történnek
célom
választást
javak
szolgáltatásra
évesek
legkiv
gimnáziumban
feleslegesen
rájött
tenyér
nagyközönség
árnyalat
elalud
okleveles
##vagy
szter
terhet
##abi
időbeli
önki
hajón
eredményéről
gyógytor
filmfesztivál
videóban
sebast
apróbb
pillanatot
gombás
kerékpárt
tábori
hozzáférési
lövöld
elfogyott
sütemények
##nában
elrag
kellet
##berális
##kozik
részeit
szakon
fejezi
adatokhoz
érzékelhető
öltözött
kilencedik
lóerős
képviseletében
producer
##optimaliz
selejtező
kazincbar
ikrek
absztrakt
cup
##dekor
##info
megünnep
##illan
kiseg
látszó
oklevelet
főszerkeszt
##szerűség
rendszereket
értékelő
veszett
##ózzuk
alakját
éveiben
arányú
mindennapokban
ausztrália
##tap
elle
##agan
##ítású
küldés
kisméretű
##őrség
rendelettel
konvert
autókat
nemzetbiztonsági
hisznek
újrahasznosítás
vendégeinket
ellátását
szeptemberi
kivitelezési
bízunk
végrehajtás
akadálymentes
##halál
analyt
támadást
héber
tantárgyi
fogyatékkal
cad
ólom
megidéz
szállítható
##ülésre
gépészeti
##telennek
diákjai
reklámok
fellépés
limuzin
applikáció
mozogni
tisztítószer
barcelona
pörkölt
inak
pm
##inó
##adtam
felforral
érl
##ókor
belügyminisztérium
##tervez
##teremben
##közös
okj
mario
füves
jövőkép
kínos
levelezés
vizsgálják
elektromágneses
mindennapok
szij
délelőtti
ceruz
fenyegetés
szá
megtárgyal
##itu
állítsa
kapar
tanácsol
körvonal
##szakért
jársz
kormánynak
##álásához
díjmentes
csapatát
májusi
utcák
gondolkodtam
kutyus
pszichés
türk
##mosó
strukturális
fennállása
##labd
##gárd
##ister
beb
nagybet
véglegesen
órája
brun
nyújtson
tartalmaznia
chan
mosás
áldás
húzta
védőolt
kultúrák
őshonos
##ajánló
életmódot
kávéfőző
mindazoknak
intenzíven
emlékeztetett
veszélyezteti
kártérítési
legdrág
legkiválóbb
zá
##egény
##álhat
lew
fickó
életút
történjen
karán
szóltak
szakmát
pályázók
biog
forrásokat
intézményvezető
americ
légúti
pálc
lovak
##friss
asus
kazett
számítástechnika
palesztin
önrendelkezési
zág
##ítatlan
##ispán
##észítés
valentin
##ezetlen
##illik
kisugár
fejlemény
igazolást
##tatást
szócikk
##itású
munkaterv
##fordító
tanárnő
statikus
ígért
fagylalt
sóhajt
éhség
markáns
aqua
megyeszék
##orító
megadásával
miatta
##ime
vizsgázó
indulunk
átvett
bazil
málna
pep
##nára
##gener
eltem
##ázása
legizg
esős
hand
törékeny
##napok
gazdája
feladatra
októberi
kiszűr
##mondó
bukott
őszinteség
##hívó
moszkv
naiv
pell
##pult
balog
kla
falvak
bírnak
egyetemre
egészségét
eddiginél
márciusában
kategor
##ítaná
priorit
franciák
##teremtő
##lény
##aszter
értesít
fiat
jogutód
vélik
szokny
vegyék
békél
tehetnek
kiszár
feleségével
háziasszony
lehettek
önkéntesek
hőmérsékleten
kakaó
má
##pant
##gól
főügy
##számát
diót
anyagilag
fizetnek
indulni
kiemel
regisztrálni
élvezés
ujja
organic
convent
eljutott
privat
előkerült
bh
rás
kivehető
##napon
módjára
##oldás
csatár
aranyat
finomra
örömét
próbálok
cipőt
kezdeményezett
munkahelyen
##ejár
##ítéséről
##nnyel
levált
nyugaton
tervezni
méretét
she
megismerésére
##intézked
bízik
megfizethető
visszajelzést
bikini
célkitűzés
fárasztó
nemzetközileg
luxemburg
##jéből
##akölt
felöntjük
##öttük
##almazott
országnak
hajrá
kedvére
ellátogat
összegben
profession
hegyes
meglepett
munkatársat
indultam
indoklás
súlyosb
szándéka
quad
sztárok
archit
sérüléseket
árfolyama
tenné
láthattuk
olvasztott
kát
##ócs
szők
leegy
biztosra
nyomában
##készülék
borított
perckor
medi
építve
##nyomású
hunyt
ismétlődő
targonc
wood
##sunk
##erül
##ódva
telet
##közlés
támasz
rendelkezők
figyeli
gondolsz
alakították
iparkamara
láthatóvá
akciót
##boy
progressz
szilvás
hanyat
előrelát
clean
##fázis
##ertya
emigr
##ülte
##közösség
népzene
laura
eskü
szocializmus
előterjesztést
működtetett
székelyudvar
argent
tintapatron
watch
radnóti
legkülönbözőbb
bád
jet
##sík
##öször
nevének
vonni
direc
impl
kihűl
ízét
nehézséget
lábak
húsos
ügyfelünk
meglátjuk
kényelmesebb
mutatós
időtartamra
megérdemelt
csemeg
beazonos
legfiatalabb
cp
##oi
##erem
##érhetetlen
bevitt
##ural
halas
önmeg
vezethető
gyakorolja
királynak
antrop
készíthetünk
vakolat
szlovákiában
felesleg
megpuh
tranzakciók
menüpontban
benzines
##pool
copyr
serkenti
##szükség
lár
##halmaz
##ilincs
##koron
##atoknak
sajttal
értékelte
ötszáz
##ülésének
nyitottság
melegebb
##levelek
egyházmegye
választáson
##szegi
szegények
fájdalommal
kétségtelen
alternatíva
beavatkozások
lopás
zirc
##ija
##esco
kiskereskedelmi
egészséget
##jelek
tervezők
pályázaton
kényes
honlapot
portfol
keményebb
xxiii
kopog
születésnapját
műveltség
egyenlőség
paraziták
legérdekesebb
gipszkarton
##kell
##ilén
felém
fogékony
világít
főni
önre
találhatunk
tisztviselő
készülődés
megtaláltam
##hagyma
##versenyen
megszűnése
kamarai
erotic
selymes
zacsk
copyright
koff
##káni
##ortól
##elésével
szépségét
kérdéssel
képviselte
romlott
mindenkivel
szobákban
diákoknak
legkönny
lelkesedés
segítettek
##hulladék
táblázatban
repertoár
anatóm
listák
##nó
##feszt
kiszor
utakat
##ézett
steve
kivég
##ióz
szállították
irányelve
fehérvári
figyelmes
professz
toner
cool
áttekintése
elviselni
beleszól
magyart
tejfölt
fug
##kőz
##ggyel
##izett
behely
szemű
példaként
##assam
volvo
engedd
kutatása
protein
szerbia
game
pte
öd
##rod
##mell
##velt
kérése
körülnéz
kontra
végrehajtott
pillanatában
regényt
magyarázata
készítéséhez
finanszírozott
##tudat
munkássága
potenciál
benzink
ötvenes
hódmezővásárhely
márkanév
dm
##det
##múzeum
##figur
##emens
##inam
felír
##észülék
##entral
életveszélyes
feltárt
tárgyában
tárgyalt
számítva
csatlakozni
múltra
papíron
##éseivel
megpróbáltatás
alkatrészeket
lemondott
búcsút
##ellenőrzés
legizgalmasabb
##vh
elutaz
felelt
alapképzés
amelybe
hozzárend
nevelt
módok
##lésével
fejlesztésű
##index
pirított
társadalomtudományi
##éjére
felkutatás
meghaladta
leírtak
##sebesség
odafigyelni
futárszolgálat
képviselőtestületének
indokolatlan
juss
##yer
##oker
elidegen
közjegyző
napsugár
világörök
módban
házim
eszünkbe
testrész
néhányat
ajánlotta
folytonos
ostob
##kollégium
üvölt
hvg
cenz
##su
##kulátor
##áztak
szakembert
karkötő
##zelék
vizsgára
szíved
bemeleg
kiki
##einkkel
lánynak
lemos
figyelemfel
cukr
csökkenthető
##szereplő
vétele
fantázia
különlegesség
esterházy
buta
odal
##ontól
elsősegély
államban
tervezik
kultusz
vendégül
lemezt
szerkesztés
elvárásoknak
kikapcsolódást
természettud
##kilenc
fergeteg
ej
tigris
vass
ököl
##leh
##atlon
##orosz
##terek
##lásával
dietet
nyugdí
kívánnak
torkol
legyetek
geci
##iana
világháló
szezonális
orgon
bicikl
vértan
döntetlen
verte
##akes
##ségében
szerelve
##ellő
helyezze
azoknál
döntési
terveztem
biom
homályos
sugárzó
marton
visszakap
következtetni
elfelejteni
##ruházat
dramaturg
##atba
módra
##ohan
beköszönt
letör
megbízási
cukros
weboldalunkon
##működés
küzdenek
szkept
cerem
megvédeni
ibolya
tejszínt
betűtípus
szemszögéből
##ior
##ukciók
utunk
##ősök
nélküle
##asztalos
gépen
stresszt
megjelenített
ünneplő
összegyűlt
útvonalat
kihasználni
aludt
végezetül
##gus
##múlt
##ery
##ervez
családjával
kirek
kötés
unic
ünnepli
engedélye
elvégzésére
népszerűségnek
hotelben
##hiba
háborúk
bármiféle
aroma
legdrágább
pend
##jaikat
minib
évtől
számott
csalódást
alkalmazására
léphet
berecz
megmoz
csatlakozz
boldogok
vágysz
februárjában
tized
morális
nyugdíjba
megszabadul
buddha
károkért
pac
xen
##busz
##atar
végezték
##kalács
átf
ráér
tagország
formái
különbözet
támogatásáról
minőségirányítási
egészségesen
drón
egyesületünk
szűrők
tiltakozás
devizahitel
laminált
ll
##senek
##kik
szláv
##nyá
tudjam
##ájaként
spot
##óbarát
figyelő
szósz
szívesked
témáról
manchester
melegben
megragad
gyapjú
héz
kvíz
zivat
##jelleg
##ertes
fiának
levest
andré
beszélgető
helyszínén
mágn
kicsivel
lezárult
térségében
rehabilitáció
nyelvtanulás
tulip
efféle
kijev
belsőépítészeti
szemtanú
cand
dns
##ezres
##ose
szerzet
##állása
tudnia
esni
##közeli
anyatej
szabályozható
formába
##essze
néma
díjjal
hirdeti
bérelt
viszonya
nacion
kérdező
mutassa
elszállítás
lakóépület
elismerte
csengő
süs
megcsinálni
##apeuta
fluor
impulzus
##hullás
bör
pt
éter
##win
##etős
##ágás
##épes
kapkod
véghez
átvizsg
gyermeknek
említette
távozás
##határozó
ruhában
hűtőben
instit
figurák
plébáni
fecsk
##nélkül
##nádi
##sőleg
##ikett
##ítod
##csisz
ambi
teend
perf
üzletet
tevékenységre
kolleg
kötetet
pincér
special
kiszámíthatatlan
elfogadását
yorkban
kiüt
jószág
orch
időköz
párolt
együttese
hagym
kedved
intézményt
mögül
act
szalai
elkezdeni
járművet
szándékát
elutasította
kezelőorvosát
adókedvez
provok
##úcs
##asan
ezres
aradi
##terápia
élethez
hatásfok
lépték
székház
kiemeli
szövegét
temploma
kopás
##őképesség
bevétele
megfogalmazása
nyálkah
gordon
beauty
pant
##első
##ésből
könt
##őrlésű
színnel
##ándi
szükségesnek
elhinni
feltételezett
kifejtette
díszlet
ötletes
kialakításra
ikt
játszottunk
visszavonásig
szamár
sapka
csempe
ultrahangos
bernad
dunakeszi
##fék
##győr
##gyermek
##arész
egyszóval
bevételt
nyög
évekre
szemre
ener
élére
##icit
örmény
családoknak
lapokat
vágtam
olajon
hitler
sétáló
követelményeket
gondoskodnak
kihagyhatatlan
felvonult
studio
megmagyaráz
pogácsa
gokart
zóna
##ograp
##írási
##hetővé
zsindely
haját
formális
névtelen
kutatást
diákokat
ülnek
képességeit
megfesz
színvonalon
kártyák
nyersanyag
félpanzió
pneum
tt
wall
##halm
##olas
##csó
szerelmet
nagyfokú
belgr
##ármestert
személyeket
szolgáltatása
megoldással
legjobbat
helyzeteket
szerveznek
addigi
felfedezése
megakadályozni
állomása
kimerült
jelenlévő
padlizs
ré
##zási
helyezik
##émiai
biztosítására
##alomra
keresztmetsz
nyitja
feketeb
hitet
letölteni
gyulladáscsökkentő
kiindulási
giz
##dl
##oztuk
köpeny
kihat
nya
##imád
halaszt
##zései
kommunikációt
eltérések
becsül
áramlás
##auer
kombinációja
##oterápiás
charles
köntös
üst
##kában
##ondó
emberhez
találom
támasztott
tájékozódás
elnöksége
görb
##osabbak
madách
keveredik
parketta
letöltése
felsorolás
rangos
taxi
higiéniai
lecke
trilóg
ios
rest
##ásán
##estyén
követése
##adói
volumen
nyújtása
rakjuk
felkészülési
befogadására
bevonat
kötelezettségének
sütőpor
tréner
úszómed
hozzáférhetővé
kancellár
végelszám
zártkörűen
##kendő
##ozáns
feljegy
##javal
##abból
terméke
fröccs
szállítást
##stratég
féreg
##részes
valósággal
kooper
bemutatására
következményekkel
micro
fennmaradt
##ulátort
próféta
rászorul
airbnb
##xis
##olhatjuk
##inát
amily
orra
##ászni
találat
karit
mérc
jobbos
biztonsággal
honf
vegyünk
égett
##vízi
bemutatjuk
ráncos
##uther
intenzívebb
bálvány
intelligenci
##ítanunk
##korlátozott
csövek
értéknapban
kall
##hart
##anád
##éli
leszűr
##napot
elmél
##ügyre
testnevelés
mozgató
model
##álásában
közlése
osztályának
társaságot
gyógyszereket
tipikusan
megcsinál
fenséges
csepel
bomba
##olca
##vea
napközi
alkony
programra
budapestről
balzsam
járatok
irányítást
alakította
távhő
erősödött
bírom
erőmű
csapatának
gombák
robin
##undai
óvodapedagóg
elhagyni
balesetben
mostanság
mindazokat
merénylet
##márton
##vész
##uff
##ezhetők
árösszehasonl
bizonylat
doktorand
kimut
mobilitás
szájába
kutatóközpont
paradig
zokni
lobb
##ereje
szesz
##use
igényeknek
járók
##allas
##ezzem
festészet
sárvár
piacot
viselkedése
traf
tükröz
elbűv
évszázados
animáció
vlagy
lakberendezési
jugoszláv
leegyszerűs
##tömeg
##zo
ambr
##avár
áthid
mellnagyobb
##észter
tisztítása
irányításával
európát
okozhatja
tűzről
rendezvényeken
égés
energiafelhasznál
felkock
miniszterelnöki
egyensúlyt
földművelésügyi
##okád
évnél
##őkön
belföld
##ivá
ügyviteli
említést
plató
birt
vállalkozást
jane
földal
mesef
elejére
bejelentése
győzni
jour
csokit
##okká
válasszunk
nato
scott
trendi
ápolt
csereszny
rakt
ryan
##enei
##ikára
előrébb
napban
##ebeteg
iraki
##kiált
zenék
engedett
reál
bérel
lassabban
levelei
felvételeket
látnivalók
ütés
sarokban
megváltoztatása
felismeri
##észettudományi
preciz
bedob
##stein
##alizálódott
öregedésgátló
zoom
emblém
strapabíró
happy
dia
hov
tir
íves
##nyitás
megsér
felfigy
keretet
fejhallgató
személyazon
gyermekkori
részletet
lement
simára
infot
álmok
mozgáskorlátozott
rezid
munkaidőben
meglátta
##találkozó
megillető
radioaktív
sóg
##ibe
##gés
##etáris
##erjedt
##állók
fogság
szemei
törlése
##ungel
##tatását
örült
ismerek
térítendő
alakban
partra
megtalálták
régiók
##erőszak
kiállítási
megtalálhatja
kőműves
elhagyja
lazac
popsi
romantika
vagány
domináns
felhalmoz
megsütjük
##okrácia
pow
rim
sac
őz
##nátok
elágaz
megsp
##édiás
zsem
szállított
családdal
perben
##stílus
kérdését
állapotok
utazást
hitelező
halálának
korlátozza
szenvednek
ether
berendezést
bízott
kritikai
képzőművészet
hyundai
bemutatkozó
másolat
légkondicionált
##szerkezetek
tasnádi
diabét
flexib
törvényjavaslat
rendű
teleszkóp
váradi
élethű
váltja
eredete
körülöttünk
szerződése
ötször
##mérés
##rome
##rendszerben
reményt
állítanak
sehogy
elpusztult
kápráz
mexikó
adattár
european
mécs
adásvételi
há
viasz
xp
##szanak
##olor
##épző
jelei
fogkef
eredményezi
művészt
zárni
őrző
infokom
bejelenteni
imádja
logika
becslések
élettárs
kitöltésével
monitoring
##budapest
burgonyát
felelőtlen
zempl
gin
mott
salak
vil
##ql
##esedett
##edéket
végzet
##eteit
helyzetének
eljárásokat
megállni
értelmet
vágány
##jogosult
leírását
fórumot
fűszerek
felirattal
finnország
tönkr
erőteljesen
szódab
bepillantást
honfitárs
dl
lank
raf
##iel
##olandó
szempill
végzetes
sajn
világossá
anyu
címvédő
educ
szervezetének
hírh
istenhez
születnek
megmar
materi
hátteret
utasítása
előnyök
növelik
létrehozását
law
játékosa
tudásukat
varázslat
szolgálatában
fesztivált
united
mindnyájan
##ovo
említi
##esszel
falut
blikk
vendéglő
zárás
elkészítését
dologban
növényt
##esítve
húzódó
habosra
benyújtásának
dunaújvárosi
támogatói
nyúlik
szalonnát
##atorb
bű
hőt
##gyilkos
##erve
leolvas
##korcs
közössége
eredményre
hívek
fejlődni
gombok
negyedéves
parkett
határidőt
ünnepségen
gdpr
télapó
öccs
megap
megható
ugyanebben
visszaford
##városban
hivatalban
elnökét
kezeléséről
fájlt
arcok
újabban
jöttünk
milliót
noémi
stratégiák
munkahelyek
haladunk
termelői
baleseti
eladásra
kibontakoz
szégyell
kenn
vr
xd
zeller
##host
megnőtt
álc
fogly
esete
nyomda
testem
vélte
falai
biatorb
betegségeket
vizsgálatokat
hasonlót
ültem
színekkel
pihenésre
kifizetni
összt
tatai
kifejezések
navigáció
tucatnyi
testreszab
membrán
sztem
##nyé
beck
##képtelen
##osza
férgek
##folyás
borult
elvarázs
sütöttem
##ione
használatáról
hitval
öltözet
lisztezett
pillanatig
pitt
pozícióban
elemzések
pályafutása
észrevétlenül
szultán
fet
ronald
##ato
##ular
végzése
##felszer
sorolható
melyiket
viszon
jobbak
olvasásának
##esszió
##viselés
##ónév
délben
cikl
szokása
##üzenet
tűzte
hazaiak
mobile
patin
réteget
hordozza
oldat
ujjú
vallja
szolárium
tomp
strandon
születésnapi
ábrázolja
elgondolkodtató
sipos
szódabikar
hez
##ront
##fűz
##szféra
##anizmus
száját
##esel
megdönt
##ségük
##írást
##imer
kitért
újraind
oktatása
típust
szövegben
kimeneti
öntsük
tizennégy
befolyásolni
##aikkal
kitöltése
csíkokra
gátlás
végzős
kapszul
vasútvonal
adminisztráció
erotika
bólint
##card
##úst
##adem
##hetné
világnéz
területekre
nyugalmat
biztonságtechnikai
excel
megléte
##uzzi
tevékenységeket
vágynak
elfogadják
rétes
értékesített
found
napjainkig
megjegyezte
bizonyítékok
charlie
piszkos
bulgária
ara
##gom
##éleg
mindet
csalódott
formákat
központok
szobra
névadó
módszere
pozíciók
találtuk
meggyőz
szakaszán
számlázási
értékesítő
vásárlást
natura
kijelenti
döntőbe
##csillag
gördül
pillangó
dildó
szijjártó
gil
##szis
##okal
felette
kiszem
##idas
##küldés
##tatók
figyelt
kerülhetnek
mike
emlékeznek
délkelet
papok
virágzó
megérte
érzéki
tájékoztatási
##kapocs
színészi
horgany
díjazott
resort
jackson
north
zita
##ij
##káp
##fiz
##gyűr
személyeknek
##színpad
miket
csatlakozási
kérdeztük
látványosság
##ttelep
beállításokat
mindannyiunk
krónik
kitartás
tánch
lökhár
deg
hack
nyuszi
##umban
kezemben
hozó
maff
keresést
szabályt
eltév
##istát
sportolás
mosható
##lyal
##levet
meghatározottak
önmagad
kategóriát
grav
szabadságveszt
bízza
túrót
forgalmazás
##hanem
felhatalmazás
kacag
piskóta
foszt
hisszük
##kímél
##olj
##nyál
megseb
##agyott
##edel
gyilk
igent
ellenszolgáltatás
##jelöl
##efa
töretlen
dolgokkal
családokat
népet
menteni
kilót
osztja
készülni
kialakítva
holló
decentral
##körül
engedélyeznie
ellep
vágya
ruhás
meghívja
felejtsük
temetőben
disznó
előirányzat
kazincbarc
mesek
roth
##igner
##hatást
állása
##tatásra
háromszáz
változatok
##körök
étlap
tartottunk
##üveget
kötetlen
bízni
akadálya
teteje
megerősített
görögök
elégedve
világbajnokságon
jelenlév
zott
##onos
kiőrlésű
közmeg
##oltan
életnek
félmaraton
##ergép
azonosítani
oroszországban
alighanem
glük
avant
északra
##czy
elkötel
fázisban
lexikon
bádog
vecs
ölel
##pé
##tikus
##íve
empát
körökben
kapcsolati
játékra
##ekedt
kihal
vágva
időszaki
gyűjtése
egyesületi
vetni
news
tesztelés
kerékpározás
gimnáziumi
##panel
messzebb
évfordulóját
photos
lízing
tub
zűr
##éltó
felöl
leadni
##feletti
sokféleség
##fogás
felhajt
területének
szentpéter
bírta
részleteit
németül
megjelenésű
királya
rendeletet
homogén
kulissz
jegyzőkönyvet
évfordulóján
##hírek
kaszt
##zattal
felleg
##ontalan
dep
##ézia
készítésére
ellenük
választásokon
intézete
európába
engedelm
kifejtett
##körben
növényzet
##spe
díszes
összetört
megnézem
makett
posztot
##tisztítás
teljesítménnyel
negyedévben
bánk
cement
##kent
##jó
##isen
kibír
iron
lakópark
hiszed
nyomorú
szentek
szentesi
tulajdoni
tesztet
reggelre
belépési
látszanak
készletek
leresz
egyenlőre
totál
huszonöt
összejövetel
vajdasági
rávilág
aktualit
legelterjedt
diplomáciai
fene
tól
##ujt
##komp
##ody
évjárat
mindenható
ignác
##ásabb
##vezetési
törött
történni
lehetőségekkel
tagját
vizsgat
szexualitás
értelmét
vadászt
énekelt
vádat
felfedezett
jellegűek
koncentrálni
ezüstér
feltüntetni
vetélkedő
##szünet
sebastian
cu
faf
nord
tő
##czi
##hetes
##iza
kereked
##aszeg
újítás
sajna
nyugtalan
folytatjuk
petra
skin
részvételre
szerkezetű
kíváncsian
tuning
békéltető
kek
tiv
##lette
##olódott
elesett
megélt
csész
közbiztonság
dead
rendeltem
##atását
vártak
eseti
kezdek
gyermekük
vizsgálták
szervezni
súlyú
azonosítható
diákolimp
farok
drágak
szerkezetbe
##történész
##hallgatás
frankfurt
vitamint
stephen
mn
##kong
##okod
##ogyó
##éteg
kihozni
nyúlt
erik
munkánkat
olyanokat
területéről
néprajz
keresztes
összeszer
##ülésére
fogyasztható
valakivel
felvert
##világban
tilalom
kifut
karaktere
##raktár
age
mindazok
dunai
xxxiii
uszod
kiszerelésben
filmtabletta
develop
##áék
##ámb
##ámmal
teríték
##illi
##kednek
fejfáj
színez
##essem
játékost
sikerét
szervezi
szilva
fenntartási
ágoston
bővített
listában
részesei
megkaptam
##ellátási
uralkodik
tortát
joseph
cli
card
moly
nob
vw
##baba
##szép
egysége
##ületi
##irint
##rián
lakhely
gondolj
izgató
brokkol
tűzhely
novemberi
összegének
##egyedik
parkok
szakértője
örülünk
befogadás
kártyával
hullámok
##helyzetben
##áramú
ápolási
megköszönni
zalak
##dök
##ws
##íthetik
felelte
kapjanak
arén
érdekeinek
fred
problémákra
feladatunk
tanulmányokat
kiadni
kőbányai
jelöljük
reményében
menüből
kerekes
mindkettőt
alváz
fekvése
fogantyú
szolidaritás
leltár
##dimenziós
torm
##uv
##meccs
##hárm
##yd
##csemp
##kozni
ellensége
ugyebár
##tartály
##ésekről
költözés
##eco
forintba
hiányoznak
mosollyal
megállapították
szavazatok
tamási
magukban
árai
kulcsot
ártalmas
csökkenés
nőttek
hálát
átvételi
fájlokat
nivea
ügyvezetője
moszkvai
rettenetes
ózd
venez
fekvés
megfordul
tartható
kétséges
meghám
kívánó
osztályfőnök
raktam
engedélyével
felváz
bővítés
felnőttképzési
zavaros
sajtóban
lengyelországban
előzmények
megbeszélés
újbóli
jókat
mft
elnevezése
megnev
##bbé
alföld
szerelme
gyöng
##atására
##valója
gondja
##tartalma
szabadidej
megszünt
fizetős
lányát
szülőket
békesség
tapasztalataim
##kőc
##echnológia
összeállítása
bevándor
belvárosban
haragud
kompresszor
legkorszerűbb
apropó
feketebors
kóbor
##rál
##hl
##fy
##szánt
##estől
élhető
jelentését
írország
lehetőségem
szabadalmi
alkalmazzuk
borászat
fények
vitatott
közepétől
településrendezési
álmos
felszelet
határozta
crist
székelyföld
nyilatkozatát
##bourg
kapacitású
cxii
szentendrei
hétfőtől
komáromi
propagand
bravúr
munkaruha
növendék
##egetés
##ikert
##áncs
##hatjátok
helyüket
##isztítás
jogvit
leszög
mondod
márciusi
leírások
túró
borsod
rétegek
leromb
egyenlőtlen
szituáció
louis
pite
##tétel
##zással
elnevezett
állítva
##attá
##felismer
egesz
##ászavar
érdekessége
testápoló
kézir
intézménye
lányoknak
fordítása
indulhat
clo
piroska
valamelyest
együttműködésben
##csomagot
foglaltakat
börtönbüntet
hozzávalókat
eldug
kiskunhal
láda
gyűrűk
angliai
##áteresztő
köhögés
hug
kúra
##arra
##itch
kihoz
##utánt
##uda
jóg
##ostori
láthatod
lakom
olvashatunk
királyok
szóró
erdek
##show
létszámú
kombinálva
rálát
pacs
##bőv
##erb
##érben
##ition
##ázzák
nyűg
kezével
laknak
##ózist
részletesebb
antig
gazdagabb
gyümölcsöket
elvégezhető
szeretetszolgálat
habsburg
kőzet
##eiknek
fagyaszt
ecet
pécsett
antalya
éjjeli
üzemeltetője
nagyvárad
enteri
tari
##ove
##vák
akinél
képtelenek
szemügyre
ismeretes
alkalmazva
nagyobbik
megjelenési
ízes
válaszadók
##véve
áprilisában
múltja
múltkor
##kapcsoló
szezám
peking
like
##ritk
##adíj
adobe
magyarországnak
##sorok
emlékét
részletesebben
sebestyén
összegtől
tömítés
csinálunk
ritkaság
lemondani
hímzés
angela
##ekercs
muzsik
tasak
zalaegerszegi
opciót
krimi
##szemlélet
folklór
##óvári
feláld
##agra
##talp
##úllyal
építette
ellenjaval
ugyani
##éseken
javított
kifejezni
decemberi
tervének
vizsgáljuk
önmagunk
agrárm
bokor
fogyókúr
frigyes
mogyoró
manager
ellenkezőleg
felváltva
jani
##cast
##köv
mindenről
tárolási
budap
elhasznál
szervezünk
##ongó
eseményekről
egyenruh
##falat
kozma
évfolyamon
hálózatot
megtiszteltetés
előállítása
szőrös
gyöngyösi
multimédia
rendellenesség
promóciós
átnyúló
porsche
##lég
##öj
szelek
##ála
##álódik
megjav
##apos
csavart
##tain
miri
programnak
jóllehet
mutatunk
##szabályozó
kolumb
kutatóintézet
kincstár
holding
dohányzó
csipk
olyasmit
szingap
közgyől
american
loc
##sev
##fic
##állni
leggazdag
##jukon
##ultság
##felszín
##számban
pénzből
irányból
mosó
nyitható
kettes
piacok
krémmel
##iféri
befejezni
megpróbálta
hajdani
##őjén
kitöltött
kollégiuma
vázlat
börtönben
születésnapja
elsajátítása
nevezetesen
iszonyú
mappa
gusztáv
szódabikarb
gasztr
##nén
##ködik
másutt
világgal
rendszerhez
##ványt
városnak
könyvének
tanulságos
legfőképpen
tao
pártja
számítógépet
lehelet
borsot
kövesse
vittem
kisbab
foglalkoztatottak
sárospatak
##ress
##ovits
emberekre
mérnökök
##úrjuk
troll
emlékezett
fogadjuk
##hajú
magaddal
kopott
üzeneteket
figyeljünk
guy
rose
cigányok
talpra
pázmány
##ammal
kaphatunk
kétely
költők
gyereke
gyártású
tulajdonban
poros
estig
laikus
javaslatára
##kérés
health
közreműködés
behozatala
eft
kömény
kiesett
érezze
##elméleti
részvételt
mennie
##ando
veszed
sikeredett
fájó
evett
kapcsolatfelvétel
hűtlen
##rakció
ugyanazok
börtönbe
háromszoros
aláírásával
##unál
##ikul
##ámasz
termosztát
belém
sorolja
továbbképzési
mellőz
##kiadás
##utatni
erősítette
brown
varg
veszélybe
lábad
érdeklődési
utalva
megtudja
latex
ravasz
republik
avar
pofon
side
##pent
##put
##oztunk
dehogy
teljesítő
útról
tisztítható
akárhogy
környezetünk
##ájától
egyenértékű
sebessége
hadit
csokis
kombi
csíkos
lemondás
kalóriát
vagyontárgy
kipufogó
##élő
helyeztek
fogás
méri
##ozói
leválaszt
nyugatra
drag
otthonát
jellemzik
bővíthető
rákérd
titul
látványa
koncerten
kötöttek
kipróbált
férfinak
megkérdeztem
retor
szabványok
impozáns
epizod
piskót
babakocsi
gimn
menne
megseg
emil
kétezer
visszaszer
izland
fizetést
piacvezető
növelte
követelményei
egységesen
odav
kérelmére
ellenőrizzük
szállítással
példányt
kondíció
elhatározás
annam
progn
állagú
szupermarket
bajt
juli
pikk
rendszám
esték
##jukban
##tervezet
neon
népmes
késői
arcon
lászlóné
dobni
##ermelő
szövegrész
evés
##könyvek
elhelyezésére
karácsonykor
##ashion
szikr
szeletekre
szabályzatban
prosztata
flam
vére
##ceum
##szin
##cir
tároljuk
életműv
mondás
természetű
gyermekeim
lapra
bajban
bajba
játszotta
atlant
szempontokat
háttérrel
bontás
fakult
kifizetett
közreműködik
emésztőrendszer
fóli
földszinti
analytics
zet
##ree
szerecs
álltunk
szemébe
értető
szeretünk
törő
harca
alakulat
percenként
arcbőr
##váltást
növényterm
műanyagból
lelkiismer
postán
sebességet
elhagyott
szőrtelen
##felületek
választékban
érzelmeket
utasításokat
körzeti
prezentáció
fordulatszám
##fertőzés
zágr
dörzsöl
jeg
##ty
##tátok
##ela
leer
##endo
legális
##tartók
hangokat
megfelelt
gyógynövények
megoldásokkal
falv
tölthető
emlékezni
megbirk
hidat
##afür
digitaliz
akitől
hálózaton
ugrik
hektáros
árajánlatot
##keverék
eco
gif
##őver
felkel
számoltak
##ályog
végétől
##közlemény
színező
címek
maradok
brother
kézműv
szövetek
hitelintézet
rólad
lakásba
üvegek
hűtés
boltokban
reagálni
akkumulátort
dombóvár
kizárja
dzsungel
forrásokból
ázsia
megjelölésével
kimenetel
térfogat
##ajándékoz
##ságokat
##udi
##beállítás
fogan
szakág
melyekben
találhatsz
vona
államnak
##olly
viszontel
##erőre
készíthető
tájékoztatója
tárgyaláson
háziorvosi
alakulását
schm
tüsk
megnevezésű
fuvarozás
sárgarép
izgatottan
##íthatod
foglak
kétágyas
leszok
rendelése
##ezésének
nevetés
megfelelés
therm
##einknek
##zóna
##súlyosabb
hegység
felkar
élvezi
elkezdték
johann
alvó
közlemények
kilátó
elszámolt
visszaküld
alulról
##üzemelt
cxc
likvid
különböznek
momentum
page
rés
vász
##habbal
##akodó
megjött
##abol
rendjét
verseket
kézirat
feri
idegesítő
pálma
touch
asszoci
borsozzuk
értesült
tanévre
ítélete
állapította
lendületet
casting
aerob
nö
rü
##mári
aréna
story
##készség
periféri
maradtam
földbe
lépő
semmibe
mélyebben
tetten
##áira
felvette
##hajtás
tegyenek
hordó
vehetik
jótállás
befejezett
##vizes
megmenteni
féltékeny
zaklat
poliészter
gondozásában
batthy
taylor
lewis
##bár
##etsző
##emből
##álik
minute
##cipl
##örd
ezeknél
szabadalmaz
szenthárom
villan
üllő
zsírok
tizenhárom
felismerés
dugó
##igényes
élettartama
tejföllel
elváltozás
horthy
hurg
klór
##orv
kaphatók
életedben
használatban
kezdtünk
##ütköz
széll
##adtuk
bővülő
módosult
partnerei
ügyfélszolgál
padlás
mozgásszervi
segédlet
pólus
hétköznapok
anyanyelvi
pünkösd
téglalap
fh
jat
##lesz
##sub
##olhatatlan
##olódás
elgond
##ágjuk
csob
deform
##egyszer
baross
járható
diamond
olvasta
poliszt
szentelt
arcot
honlapunk
szerencsénk
könyvei
ajándékokat
metrop
titkot
bukkant
forráskód
megpróbálom
csúcsra
megosztás
spanyolországban
kedveli
készítsen
##szőnyeg
buddhizmus
##akról
fels
kiirt
##ázzsal
szakkollégium
nevezés
hazam
szentség
négyszög
jövőjét
kertészet
lényegi
##változat
boldoggá
eleji
tévhit
##ográf
térképek
üdvözl
nyilvántartása
ellenállni
témakörök
tradíció
szerettek
##odjon
##ülten
##képe
##ióta
előttük
##ömlés
olvasok
view
##ogatják
videón
légző
ismétlés
kommunikálni
zongora
##pofa
bá
valut
mihez
tudható
munkács
##opéd
##ügyek
néztek
szervezetekkel
mosni
társaságban
fedi
zavarba
##irányítás
##iano
lennénk
háborúban
preszt
ragaszkodik
szimbóluma
plébánia
áhít
itál
##online
##nyertes
adtunk
fogat
átmérő
emberei
zsófi
[...]
